.	-2.22533
<s>	0
</s>	0
<unk>	0
▁a	-3.84296
▁tom	-3.86055
▁i	-3.98278
'	-3.99944
?	-4.09359
▁the	-4.18974
▁to	-4.23862
s	-4.31787
▁you	-4.3805
▁de	-4.39208
▁no	-4.47266
▁que	-4.48667
▁la	-4.63362
t	-4.7354
▁¿	-4.78762
▁el	-4.80227
▁me	-4.84776
▁is	-4.84955
,	-4.88395
▁he	-4.98473
▁en	-4.9923
▁es	-5.04575
▁un	-5.18954
▁it	-5.29149
▁in	-5.34629
▁	-5.37521
▁mary	-5.38058
▁of	-5.42903
▁that	-5.43486
▁se	-5.48614
▁was	-5.52538
n	-5.54019
▁él	-5.59093
▁do	-5.61788
▁lo	-5.63166
▁have	-5.6785
▁una	-5.67961
▁this	-5.6819
▁my	-5.69982
▁por	-5.72717
▁for	-5.80258
▁she	-5.82576
▁we	-5.82734
▁what	-5.86073
▁su	-5.88754
▁mi	-5.93005
▁con	-5.94138
▁los	-5.94627
▁don	-5.95185
▁can	-5.95457
▁está	-5.97055
▁are	-5.99151
▁be	-6.0072
▁le	-6.01185
▁ella	-6.02562
▁his	-6.03148
m	-6.0538
▁did	-6.07776
▁your	-6.08076
▁on	-6.11703
▁want	-6.16104
▁with	-6.16136
▁para	-6.16285
▁al	-6.18409
▁has	-6.19193
▁and	-6.24001
▁not	-6.25018
▁y	-6.25741
▁te	-6.2617
▁like	-6.26818
▁know	-6.30235
▁más	-6.3069
▁las	-6.30753
▁at	-6.38205
▁him	-6.39202
▁there	-6.46939
▁go	-6.47388
▁they	-6.49425
re	-6.49431
▁tu	-6.51166
d	-6.514
▁yo	-6.53723
▁her	-6.53779
ll	-6.55142
▁qué	-6.56562
ó	-6.59085
▁will	-6.63703
▁time	-6.66536
▁estoy	-6.67101
▁muy	-6.68796
▁how	-6.68874
ed	-6.69631
▁very	-6.71382
▁esta	-6.71549
▁had	-6.72319
▁eso	-6.73035
▁este	-6.73456
▁tiene	-6.73878
ve	-6.74911
▁all	-6.77243
▁del	-6.78412
▁here	-6.78948
▁estaba	-6.7948
▁up	-6.7968
▁about	-6.80561
a	-6.81784
▁quiero	-6.81954
qué	-6.83097
▁think	-6.83534
▁si	-6.8391
▁tengo	-6.84258
!	-6.84735
▁fue	-6.85131
▁casa	-6.86335
▁aquí	-6.87216
▁get	-6.8931
▁out	-6.90262
▁when	-6.90607
▁hacer	-6.92134
▁as	-6.92336
ing	-6.92563
▁from	-6.93301
te	-6.93762
▁como	-6.94829
▁if	-6.96548
▁were	-6.99176
▁who	-6.99525
▁one	-6.99566
▁son	-6.9971
▁come	-7.01481
▁ha	-7.01882
▁an	-7.05283
▁could	-7.05428
▁todo	-7.05504
▁algo	-7.05678
▁esto	-7.07027
▁doesn	-7.0792
▁going	-7.08331
▁would	-7.08584
▁by	-7.08853
▁tiempo	-7.09035
▁gusta	-7.11633
▁why	-7.12124
▁see	-7.12331
o	-7.12888
▁good	-7.13971
▁favor	-7.14283
▁tan	-7.176
▁please	-7.19011
▁should	-7.19145
▁ir	-7.19463
▁so	-7.20562
▁nada	-7.20637
▁just	-7.21055
▁todos	-7.2169
▁puedo	-7.21848
▁been	-7.21858
▁need	-7.21925
▁where	-7.22026
▁era	-7.22068
▁hay	-7.22302
▁let	-7.23432
▁boston	-7.24413
▁cuando	-7.24785
▁tell	-7.25036
▁vez	-7.25305
▁bien	-7.27261
▁mucho	-7.27882
▁help	-7.29866
▁more	-7.30197
mos	-7.30396
▁puede	-7.31483
▁but	-7.33543
▁now	-7.33896
▁than	-7.34148
por	-7.36212
▁never	-7.36243
▁ellos	-7.36312
▁ser	-7.36688
▁us	-7.37112
es	-7.37339
▁car	-7.3776
▁sé	-7.38519
▁some	-7.38579
▁solo	-7.39563
me	-7.39709
▁something	-7.39711
▁got	-7.40389
▁too	-7.41344
▁take	-7.41633
▁mañana	-7.41888
▁nunca	-7.42156
▁day	-7.43279
▁am	-7.44414
▁much	-7.44599
▁trabajo	-7.44655
▁last	-7.44695
▁¡	-7.45564
▁creo	-7.475
▁money	-7.48432
▁home	-7.49467
▁work	-7.50562
▁ahora	-7.50623
▁people	-7.51098
▁dijo	-7.51103
▁hablar	-7.51762
▁sus	-7.51957
▁dinero	-7.5197
▁ya	-7.53474
▁dos	-7.53691
▁había	-7.55243
▁pero	-7.56466
é	-7.56655
▁tomás	-7.57254
▁back	-7.57782
▁día	-7.61139
▁soy	-7.61956
▁our	-7.62532
▁house	-7.63074
▁siempre	-7.63407
▁hace	-7.638
▁nos	-7.64258
▁really	-7.64286
▁went	-7.6452
▁book	-7.64711
▁ese	-7.64795
▁están	-7.64928
▁many	-7.64973
▁said	-7.65052
▁told	-7.65609
▁libro	-7.65776
▁must	-7.6628
▁o	-7.66358
▁give	-7.66739
▁any	-7.68064
▁poco	-7.68901
▁man	-7.69589
▁anything	-7.69707
▁haber	-7.69904
▁hoy	-7.70013
▁lot	-7.70214
▁thought	-7.70857
▁today	-7.71024
▁say	-7.71028
▁does	-7.71367
▁make	-7.71613
▁quiere	-7.7171
▁eat	-7.71711
▁school	-7.71823
▁new	-7.72163
▁voy	-7.723
▁room	-7.72719
▁only	-7.73225
▁french	-7.73255
▁nadie	-7.73379
▁va	-7.73419
▁ver	-7.73909
▁mejor	-7.74169
▁two	-7.74468
▁esa	-7.75398
▁always	-7.7557
▁made	-7.75958
▁años	-7.76141
▁tú	-7.76369
ta	-7.765
▁speak	-7.77045
no	-7.7715
ly	-7.77364
▁right	-7.7742
▁estar	-7.77689
▁idea	-7.78169
▁long	-7.78193
▁father	-7.78319
▁tarde	-7.78446
se	-7.78565
e	-7.78675
▁sabe	-7.78986
▁francés	-7.79209
▁demasiado	-7.79721
▁quería	-7.80009
▁john	-7.80107
▁maría	-7.80497
▁padre	-7.80767
▁"	-7.80955
▁three	-7.83118
▁tenía	-7.8321
▁every	-7.83537
▁love	-7.83729
▁parece	-7.83809
▁hizo	-7.8392
▁old	-7.84182
▁may	-7.84237
▁antes	-7.85082
▁tienes	-7.85971
▁mis	-7.87121
▁tres	-7.87306
▁well	-7.87601
▁estás	-7.87614
▁night	-7.87883
▁debería	-7.88439
▁still	-7.8971
▁look	-7.89762
▁wanted	-7.89965
▁off	-7.90163
▁tomorrow	-7.91427
▁noche	-7.91642
-	-7.92007
▁talk	-7.92271
dónde	-7.92546
▁before	-7.9259
▁asked	-7.93124
▁won	-7.93617
▁hora	-7.93811
▁over	-7.94769
▁sin	-7.95416
▁usted	-7.9598
▁put	-7.96031
r	-7.96103
▁left	-7.9616
▁dog	-7.96452
▁way	-7.96584
▁eres	-7.967
▁sobre	-7.97224
▁or	-7.97803
▁leave	-7.98423
▁little	-7.99234
▁nothing	-7.99548
▁ti	-7.99747
▁job	-7.99872
▁mí	-7.99906
▁uno	-8.00303
▁hombre	-8.00793
▁perro	-8.00794
▁saw	-8.00812
▁ayer	-8.01133
▁yesterday	-8.01443
▁comer	-8.01615
▁again	-8.01752
▁after	-8.01763
▁verdad	-8.0193
▁estado	-8.02055
▁live	-8.02223
cómo	-8.02364
y	-8.02445
▁into	-8.03152
▁puedes	-8.03784
▁years	-8.03964
▁down	-8.04363
▁better	-8.04523
▁debe	-8.04809
▁vida	-8.05159
▁english	-8.05514
▁everything	-8.06183
▁mother	-8.06351
▁necesito	-8.0669
▁alguna	-8.06759
quién	-8.06879
▁find	-8.071
▁inglés	-8.07362
▁buy	-8.07371
▁nuevo	-8.07615
▁stay	-8.07987
▁read	-8.08853
le	-8.08997
▁came	-8.09052
▁happy	-8.09934
do	-8.10282
▁días	-8.10468
▁first	-8.11158
▁play	-8.11222
▁coche	-8.12382
▁decir	-8.13059
ok	-8.1348
▁next	-8.13652
▁gente	-8.14013
▁mismo	-8.1439
▁todavía	-8.14422
▁hecho	-8.1495
▁understand	-8.15026
▁life	-8.15285
▁nosotros	-8.15288
▁tenemos	-8.15678
▁believe	-8.16019
▁problema	-8.16136
▁children	-8.1621
▁other	-8.16247
▁así	-8.16543
▁ask	-8.1756
▁madre	-8.18677
▁gustaría	-8.19031
cuál	-8.19874
▁hard	-8.1996
▁them	-8.2003
▁alguien	-8.20039
▁pensé	-8.20377
▁semana	-8.20435
▁plan	-8.21263
▁these	-8.21902
▁stop	-8.22046
▁call	-8.2213
▁keep	-8.22416
on	-8.22949
▁morning	-8.23101
▁bought	-8.23103
mente	-8.23291
▁friends	-8.23915
▁wants	-8.24256
▁sabía	-8.248
▁otra	-8.24833
▁problem	-8.24876
▁door	-8.24947
▁name	-8.25877
▁habitación	-8.25916
▁feel	-8.26178
▁used	-8.26323
▁quieres	-8.26359
▁their	-8.26439
▁puerta	-8.2652
▁pasado	-8.26748
▁estamos	-8.2705
▁buen	-8.27129
▁deberías	-8.27805
▁ever	-8.2794
▁doing	-8.28099
▁escuela	-8.28184
▁away	-8.28872
▁después	-8.29022
gún	-8.29232
lo	-8.29246
▁friend	-8.29594
▁dónde	-8.30355
▁gave	-8.30516
▁doctor	-8.30623
cuánto	-8.30661
▁cosas	-8.30858
▁podría	-8.30996
▁casi	-8.31363
▁quién	-8.31546
▁soon	-8.31649
▁mundo	-8.32228
▁1	-8.32373
▁late	-8.32666
▁happened	-8.33619
▁amigos	-8.33812
▁sure	-8.34306
▁niños	-8.35639
▁remember	-8.35653
▁feliz	-8.35768
▁fuera	-8.3682
▁bus	-8.37266
▁lost	-8.37437
▁ayuda	-8.37569
▁año	-8.37571
▁veces	-8.3758
▁saber	-8.37617
▁hacerlo	-8.37687
▁difícil	-8.37742
▁tus	-8.3793
cuándo	-8.38015
▁year	-8.38162
▁already	-8.38269
▁cómo	-8.38449
▁allí	-8.38779
▁pronto	-8.39429
▁sea	-8.39551
▁enough	-8.40367
▁auto	-8.40665
▁niño	-8.40733
▁water	-8.4074
▁show	-8.40916
▁boy	-8.40978
á	-8.41139
▁ni	-8.4114
▁otro	-8.41215
▁week	-8.41222
▁turn	-8.41396
▁teacher	-8.41469
▁married	-8.41552
▁alone	-8.418
▁heard	-8.41956
."	-8.42695
▁without	-8.42758
▁menos	-8.42816
▁best	-8.42881
▁seguro	-8.42934
▁dio	-8.43205
▁even	-8.43211
▁agua	-8.43226
ble	-8.43519
▁bad	-8.43684
▁buena	-8.43791
▁wrong	-8.43964
▁busy	-8.44
▁comprar	-8.44001
▁amigo	-8.44641
▁mal	-8.4465
▁desde	-8.44718
cause	-8.44946
▁beautiful	-8.44946
▁bed	-8.45225
▁try	-8.45594
▁hear	-8.4563
▁muchos	-8.45683
▁cold	-8.45944
que	-8.46087
▁things	-8.46185
▁often	-8.46198
▁realmente	-8.46236
▁looking	-8.46634
▁found	-8.4706
▁visto	-8.47443
▁comida	-8.48213
▁party	-8.48219
▁same	-8.48718
▁wait	-8.49002
▁vi	-8.49061
▁ciudad	-8.4915
▁nuestro	-8.4923
▁ahí	-8.49231
▁done	-8.49419
▁thing	-8.49492
▁conmigo	-8.50004
0	-8.50372
▁habla	-8.50562
▁vino	-8.51104
▁persona	-8.51188
puedo	-8.51355
cada	-8.51411
▁sólo	-8.51575
▁brother	-8.51607
▁seen	-8.51705
▁podía	-8.51837
▁nombre	-8.51881
▁looks	-8.52123
▁food	-8.52164
de	-8.52295
▁ten	-8.52458
▁train	-8.52591
▁use	-8.52871
▁person	-8.53299
▁big	-8.53432
▁everyone	-8.53436
▁todas	-8.53975
▁gran	-8.5421
▁hermano	-8.54586
▁personas	-8.54781
▁café	-8.54786
▁knew	-8.54786
▁fiesta	-8.55165
▁hope	-8.55268
▁answer	-8.55475
▁vas	-8.55495
▁open	-8.55862
▁tener	-8.55985
▁hotel	-8.5609
▁coffee	-8.56156
▁tired	-8.56166
▁tren	-8.56367
en	-8.56562
▁toda	-8.56874
▁knows	-8.57255
▁dice	-8.57558
▁being	-8.5824
▁wish	-8.58324
▁contigo	-8.58387
▁haciendo	-8.58672
▁australia	-8.5888
▁drink	-8.59027
▁while	-8.59238
▁true	-8.59262
▁carta	-8.60087
▁watch	-8.60098
▁someone	-8.60098
▁learn	-8.60165
▁letter	-8.60251
▁suficiente	-8.60271
▁lugar	-8.60382
▁around	-8.6067
▁les	-8.60897
▁japan	-8.60957
▁likes	-8.61091
tuvo	-8.61444
▁japón	-8.61831
▁which	-8.61831
▁profesor	-8.62213
▁tanto	-8.6234
▁once	-8.62459
▁girl	-8.62903
▁hospital	-8.63229
▁clase	-8.63498
▁cama	-8.63608
▁salir	-8.639
▁yet	-8.639
▁policía	-8.64102
▁mind	-8.65406
▁acerca	-8.65553
▁pay	-8.65587
▁leer	-8.65712
▁cuenta	-8.65946
▁world	-8.66005
▁books	-8.66342
▁bueno	-8.66367
▁sleep	-8.66426
is	-8.66757
▁muchas	-8.66763
▁nuestra	-8.66864
▁grande	-8.66886
▁libros	-8.67074
▁few	-8.6723
▁died	-8.67694
▁momento	-8.67883
most	-8.68224
▁own	-8.68696
▁kind	-8.68702
▁study	-8.69
▁place	-8.6918
▁write	-8.69382
▁days	-8.69528
▁diez	-8.70044
▁care	-8.70176
▁those	-8.7036
▁young	-8.70754
▁most	-8.70865
▁sister	-8.71319
▁pasó	-8.71361
ndo	-8.71424
ther	-8.71449
▁another	-8.71641
▁cerca	-8.71904
▁siento	-8.71966
▁each	-8.72286
▁truth	-8.72286
▁walk	-8.72408
▁rápido	-8.72615
▁hermana	-8.72625
▁talking	-8.72826
▁parents	-8.72959
▁teléfono	-8.73591
▁espero	-8.73638
▁lunch	-8.73918
▁family	-8.7392
▁tv	-8.73921
estás	-8.74032
▁happen	-8.74066
▁lunes	-8.74251
▁getting	-8.74287
▁seems	-8.74297
▁looked	-8.75196
▁anyone	-8.7525
▁hijo	-8.75294
▁great	-8.75585
▁problemas	-8.75596
▁historia	-8.75643
▁padres	-8.75883
▁monday	-8.75996
▁vive	-8.76083
ando	-8.76087
▁familia	-8.76383
▁afraid	-8.76591
▁pudo	-8.76595
▁early	-8.76596
▁fui	-8.76857
▁tried	-8.76931
▁anoche	-8.76952
▁dejó	-8.76954
▁sido	-8.77142
os	-8.77327
▁hate	-8.7737
▁both	-8.77892
▁rain	-8.78152
▁mine	-8.78164
▁vamos	-8.78166
▁ago	-8.7817
▁mujer	-8.78233
until	-8.78743
▁duran	-8.78828
▁aún	-8.79058
tienes	-8.79087
▁acuerdo	-8.7934
▁también	-8.79342
▁vivir	-8.7953
▁joven	-8.79878
▁horas	-8.79926
▁tienen	-8.79961
▁jugar	-8.80024
▁together	-8.80043
▁trabajar	-8.80219
▁difficult	-8.80349
▁gustan	-8.80371
▁puso	-8.80395
▁cat	-8.80467
▁nueva	-8.80479
▁cosa	-8.80863
▁dinner	-8.8109
▁mayor	-8.81382
▁child	-8.81444
▁venir	-8.81456
▁else	-8.81966
▁murió	-8.82158
l	-8.82396
▁estaban	-8.82605
▁angry	-8.82876
▁wife	-8.8288
▁country	-8.83599
▁donde	-8.83971
▁entre	-8.84297
quieres	-8.84379
▁aprender	-8.84487
▁since	-8.84662
▁cinco	-8.84694
▁coming	-8.84718
▁dije	-8.85047
▁favorite	-8.85062
▁tomar	-8.85571
▁nadar	-8.85891
▁pregunta	-8.85963
▁hurt	-8.86022
▁parte	-8.86079
▁dejar	-8.86125
▁himself	-8.86173
▁hice	-8.86174
▁han	-8.86247
▁nobody	-8.86546
▁yourself	-8.86546
▁encontrar	-8.8664
▁accidente	-8.868
▁haven	-8.86897
puedes	-8.86927
▁hours	-8.86992
▁question	-8.87011
▁mano	-8.87035
▁wouldn	-8.87729
▁playing	-8.87881
▁ocupado	-8.87903
▁five	-8.88091
▁meeting	-8.88383
▁mesa	-8.88913
▁pasar	-8.88934
▁gato	-8.89059
▁matter	-8.89062
▁might	-8.89198
▁temprano	-8.89199
▁hand	-8.89357
▁phone	-8.89451
▁televisión	-8.89582
▁bastante	-8.89584
▁menudo	-8.89587
?"	-8.8995
▁meet	-8.90283
▁table	-8.90379
▁ayudar	-8.90416
▁viene	-8.90624
▁mucha	-8.91125
▁llegar	-8.91157
▁gracias	-8.91174
▁accident	-8.91304
▁police	-8.91525
▁everybody	-8.91529
▁such	-8.91547
▁volver	-8.91695
▁reading	-8.91748
▁estudiar	-8.91895
▁piano	-8.91922
▁sorry	-8.91925
has	-8.92182
▁month	-8.92215
▁easy	-8.92317
▁sí	-8.92369
▁necesita	-8.92664
▁camino	-8.92715
▁fácil	-8.93017
▁start	-8.93108
▁lleva	-8.93385
▁pidió	-8.93512
▁swim	-8.93514
▁dormir	-8.93521
▁visit	-8.93676
▁japanese	-8.93918
er	-8.94028
▁under	-8.94318
▁última	-8.94622
▁eating	-8.94645
▁fire	-8.9499
▁aren	-8.95021
▁nice	-8.95052
▁says	-8.95086
▁lives	-8.95125
▁far	-8.95179
▁d	-8.95331
as	-8.95518
▁waiting	-8.9569
▁mientra	-8.95947
▁algunos	-8.96083
▁trying	-8.96106
▁solía	-8.96369
▁trouble	-8.9699
▁drive	-8.9712
▁park	-8.97183
▁called	-8.97556
▁estación	-8.97672
▁minutos	-8.97735
▁wonder	-8.97903
▁dicho	-8.98022
▁cansado	-8.98066
▁started	-8.98569
▁dar	-8.98696
▁office	-8.98829
▁decided	-8.98937
▁minutes	-8.9903
▁ve	-8.99117
▁fuerte	-8.99249
▁razón	-8.99287
▁finished	-8.99398
▁sola	-8.99517
▁será	-8.99979
▁small	-9.00127
▁story	-9.00569
▁miedo	-9.00572
▁students	-9.00623
▁podemos	-9.0067
▁lado	-9.00805
▁estos	-9.00812
▁thank	-9.01225
▁important	-9.01333
verdad	-9.01386
▁station	-9.01437
▁tonight	-9.01455
▁ready	-9.01516
▁myself	-9.01868
▁preguntó	-9.01876
▁window	-9.01885
la	-9.01889
▁país	-9.02239
having	-9.02299
▁colegio	-9.02305
▁tipo	-9.02333
▁ran	-9.02784
▁alto	-9.02889
▁met	-9.03079
▁error	-9.03149
▁conozco	-9.03184
▁woman	-9.03185
▁felt	-9.03193
ía	-9.03374
▁radio	-9.03627
▁frío	-9.03628
▁arrived	-9.03695
▁importante	-9.03714
▁shoes	-9.03751
▁importa	-9.03961
▁sick	-9.04077
▁hablando	-9.04107
▁ventana	-9.04117
▁vio	-9.04746
▁red	-9.05157
▁usually	-9.05429
i	-9.05763
▁change	-9.05787
▁city	-9.05869
▁zapatos	-9.05925
emos	-9.05954
▁music	-9.06262
▁pretty	-9.06324
▁hijos	-9.06715
▁estuvo	-9.06886
▁hot	-9.0728
▁word	-9.07381
0.	-9.07525
▁ate	-9.07567
▁anymore	-9.07699
▁película	-9.07795
▁compró	-9.08162
▁oficina	-9.08162
ar	-9.08194
▁haya	-9.08379
▁fun	-9.08463
▁goes	-9.08578
▁fast	-9.08595
▁música	-9.08627
▁china	-9.08631
▁da	-9.08864
▁pienso	-9.09094
▁working	-9.09101
▁gone	-9.09175
▁hubiera	-9.09564
▁town	-9.09573
▁llegó	-9.0958
▁ustedes	-9.09799
▁cabeza	-9.10036
▁quisiera	-9.10057
▁tal	-9.10213
sabes	-9.1022
▁homework	-9.1051
▁fin	-9.1051
▁large	-9.10583
▁punto	-9.10639
▁deja	-9.10689
▁estudiantes	-9.10883
▁tennis	-9.10986
▁rich	-9.11003
▁broke	-9.11074
▁spend	-9.11127
▁mistake	-9.11216
▁needs	-9.11319
▁christmas	-9.11464
▁enjoy	-9.11473
▁picture	-9.11615
▁reloj	-9.11875
▁bicicleta	-9.11945
▁único	-9.11945
▁cualquier	-9.12311
▁reunión	-9.12456
▁fueron	-9.12488
▁primera	-9.12521
▁esperar	-9.12544
▁seis	-9.12614
▁movie	-9.13108
▁di	-9.13188
▁juntos	-9.1332
▁eyes	-9.13413
▁times	-9.13655
▁near	-9.13887
▁baby	-9.13892
▁six	-9.13898
▁esperando	-9.13904
nos	-9.13955
▁ojos	-9.14275
▁contra	-9.14285
▁breakfast	-9.14384
▁quite	-9.145
▁plane	-9.14504
▁media	-9.14565
▁language	-9.14578
▁run	-9.15072
▁ido	-9.15073
▁game	-9.15085
00	-9.15108
▁edad	-9.15313
ba	-9.15345
▁tenis	-9.1537
▁afternoon	-9.15377
▁forget	-9.15477
▁nin	-9.1566
▁high	-9.15864
▁dream	-9.15993
▁misma	-9.16386
hay	-9.1642
▁finish	-9.16765
▁stupid	-9.16882
▁fumar	-9.16889
▁esposa	-9.1689
▁song	-9.17688
▁creer	-9.17866
▁quien	-9.1791
▁unidos	-9.1799
▁queda	-9.1805
▁viejo	-9.18147
▁sueño	-9.18154
▁río	-9.18415
▁hair	-9.18439
▁class	-9.18753
▁somos	-9.18889
▁buscando	-9.18933
▁canción	-9.19599
▁pasa	-9.19699
▁caja	-9.19709
▁bring	-9.1997
▁summer	-9.19973
▁conducir	-9.19977
▁estados	-9.19992
▁war	-9.20348
▁river	-9.20493
▁interesting	-9.20506
▁ra	-9.20531
▁debo	-9.20605
▁cake	-9.20778
▁haga	-9.20873
▁advice	-9.21019
▁compré	-9.2102
▁against	-9.21057
▁present	-9.21065
▁comes	-9.21389
▁caught	-9.21548
▁guerra	-9.21548
▁listen	-9.21633
▁escribir	-9.21997
▁bajo	-9.22027
▁chico	-9.22394
▁palabra	-9.22395
▁verte	-9.22478
▁ganas	-9.22663
ever	-9.22922
▁pueda	-9.22937
▁fish	-9.23064
▁milk	-9.23162
▁fell	-9.23176
▁verano	-9.23463
▁number	-9.23474
▁salió	-9.23696
▁smoking	-9.23705
▁número	-9.24024
▁through	-9.24237
▁began	-9.24238
▁studying	-9.24404
▁face	-9.24413
▁close	-9.24495
▁kill	-9.2463
▁perder	-9.24639
▁lived	-9.24741
▁along	-9.24795
▁longer	-9.2484
▁parecía	-9.25337
▁veo	-9.25445
not	-9.25851
▁avión	-9.25885
▁re	-9.25952
▁sol	-9.25954
▁taxi	-9.26247
▁tienda	-9.26248
▁oído	-9.26268
▁weather	-9.26441
▁sabes	-9.26492
▁respuesta	-9.26823
▁pueden	-9.26977
▁cree	-9.27035
▁calle	-9.27297
▁full	-9.2739
▁llave	-9.27396
▁free	-9.27416
▁cuarto	-9.27561
▁leche	-9.27576
▁b	-9.27622
í	-9.2769
▁pensar	-9.27834
▁interesante	-9.27959
▁chica	-9.27962
▁dólares	-9.28131
▁iba	-9.28373
▁bebé	-9.28514
▁manera	-9.2853
▁short	-9.28629
▁perdido	-9.28694
▁lejos	-9.28695
▁chance	-9.2911
▁dolor	-9.29123
▁autobús	-9.29266
▁later	-9.29435
▁médico	-9.29684
▁kept	-9.2984
▁navidad	-9.2984
▁sería	-9.29865
▁terminar	-9.29933
▁sit	-9.30401
▁older	-9.30477
▁watching	-9.30615
▁usar	-9.30746
▁america	-9.31137
▁snow	-9.31209
▁mean	-9.31247
▁death	-9.3159
▁cierto	-9.31629
▁box	-9.31973
▁pelo	-9.32003
▁bit	-9.32012
▁juego	-9.32056
▁hour	-9.32066
▁dark	-9.32161
▁secret	-9.3218
▁age	-9.32263
▁mío	-9.32371
da	-9.32685
▁makes	-9.32703
▁cut	-9.32724
▁thinking	-9.32739
▁living	-9.32765
▁quedó	-9.3279
▁llevar	-9.33178
▁vivo	-9.33251
▁capaz	-9.33425
▁oír	-9.33731
▁street	-9.33855
▁tree	-9.33866
▁ropa	-9.33959
▁parque	-9.33979
▁sat	-9.34064
▁light	-9.34324
▁ven	-9.34498
▁enfermo	-9.34561
▁killed	-9.34694
▁esté	-9.3479
▁clean	-9.34932
▁cámara	-9.35065
▁student	-9.35092
▁encontré	-9.35202
▁vos	-9.35203
ado	-9.35357
▁loves	-9.35587
ninguna	-9.35777
▁spoke	-9.35777
▁sometimes	-9.35885
▁hands	-9.35996
▁pie	-9.36127
▁encanta	-9.36302
▁camera	-9.36319
▁regalo	-9.36328
▁hija	-9.36349
▁part	-9.36408
▁surprised	-9.36465
▁vaya	-9.36524
▁seem	-9.36558
be	-9.36591
▁stand	-9.36838
▁daughter	-9.36944
▁perdió	-9.37008
▁became	-9.37014
▁white	-9.37018
▁die	-9.37292
está	-9.37335
▁libre	-9.37568
▁computer	-9.37577
▁hurry	-9.37629
▁bicycle	-9.37629
▁hungry	-9.37629
▁par	-9.37786
c	-9.37863
▁end	-9.37915
▁mak	-9.37926
▁trust	-9.38141
▁tokyo	-9.38254
▁forgot	-9.38254
▁cuidado	-9.38259
▁born	-9.38261
▁preguntas	-9.38439
▁manos	-9.3863
▁york	-9.38891
▁dollars	-9.39019
▁questions	-9.39155
▁listo	-9.39331
▁entender	-9.39451
▁company	-9.39515
▁muerte	-9.39517
▁pude	-9.39517
▁stopped	-9.39522
▁luz	-9.39536
▁quit	-9.39542
▁estas	-9.39653
▁cara	-9.39702
▁real	-9.40115
▁vacaciones	-9.40153
▁miss	-9.40362
▁sos	-9.4066
▁store	-9.40758
▁wine	-9.40894
▁beber	-9.40919
▁glad	-9.41397
taking	-9.41433
▁spent	-9.41439
▁pequeño	-9.4144
▁realidad	-9.41442
▁primero	-9.41603
▁forma	-9.41776
ra	-9.41974
▁careful	-9.42051
▁terrible	-9.4206
▁acá	-9.42089
▁calor	-9.42096
▁duro	-9.42197
▁news	-9.42573
al	-9.42584
▁tocar	-9.42599
▁hambre	-9.42742
▁consejo	-9.42755
▁hold	-9.42759
▁dead	-9.42768
▁posible	-9.43372
▁drunk	-9.43399
▁birthday	-9.434
▁pregunto	-9.43404
▁culpa	-9.43682
▁queremos	-9.43692
▁moment	-9.43891
▁falta	-9.4391
▁lie	-9.43913
▁tokio	-9.44062
▁odio	-9.44063
▁cuanto	-9.44081
▁ojal	-9.44083
▁espera	-9.44164
▁secreto	-9.44179
able	-9.44396
▁necesitas	-9.44409
▁banco	-9.44729
▁vuelta	-9.44765
▁niña	-9.44768
▁10	-9.45087
▁tea	-9.45139
▁e	-9.45231
▁largo	-9.45445
▁viaje	-9.45451
▁hit	-9.45597
▁cena	-9.45685
▁saying	-9.45951
tom	-9.46084
▁flores	-9.46097
▁siquiera	-9.46106
▁entiendo	-9.46155
clock	-9.46269
▁behind	-9.46756
▁equipo	-9.46761
▁déjame	-9.46784
▁volvió	-9.46799
▁extraño	-9.46818
▁whe	-9.4689
▁cocina	-9.47059
▁follow	-9.47319
▁cumpleaños	-9.47442
▁rest	-9.47459
▁rico	-9.47515
▁become	-9.47526
▁van	-9.47531
▁llama	-9.47732
▁hagas	-9.47755
▁malo	-9.47755
▁haci	-9.4788
▁flowers	-9.47907
▁trabaja	-9.47959
▁beer	-9.48008
▁ruido	-9.48078
▁hiciste	-9.48129
▁suerte	-9.48131
▁clothes	-9.48136
▁empezó	-9.48153
▁hombres	-9.48191
▁sing	-9.48193
▁té	-9.48197
▁recuerdo	-9.48204
▁cost	-9.48403
▁cerveza	-9.48825
▁terminado	-9.48841
▁novia	-9.48902
▁oportunidad	-9.49453
▁tío	-9.49529
▁entrar	-9.49914
▁business	-9.50225
▁japonés	-9.5023
▁perros	-9.50291
▁justo	-9.50348
▁cantar	-9.50498
▁dur	-9.50708
▁touch	-9.5074
▁speaking	-9.50778
▁crees	-9.50794
▁pagar	-9.50802
▁compañía	-9.50937
▁cuatro	-9.50937
▁próximo	-9.50937
ween	-9.50937
▁wrote	-9.50946
▁canadian	-9.51059
▁building	-9.51068
▁foto	-9.5107
▁prefer	-9.51188
▁dogs	-9.51259
▁helped	-9.51324
an	-9.51368
▁árbol	-9.51586
▁possible	-9.51652
▁expensive	-9.51653
▁catch	-9.5166
▁head	-9.51667
▁haré	-9.51693
▁eaten	-9.51782
▁send	-9.51829
▁stayed	-9.5216
▁trip	-9.52277
▁others	-9.52327
▁black	-9.52371
▁girlfriend	-9.52377
▁jamás	-9.52381
▁pensando	-9.52385
▁paper	-9.52518
▁lengua	-9.52519
▁estudiante	-9.52532
▁advise	-9.52537
▁changed	-9.52608
▁os	-9.52703
▁dress	-9.52907
▁final	-9.52974
▁vista	-9.53096
▁nieve	-9.53101
▁wearing	-9.53176
ste	-9.5318
▁works	-9.53216
▁piensa	-9.53619
▁reason	-9.53983
▁team	-9.54087
▁aconsej	-9.54123
▁allá	-9.54186
▁cook	-9.54348
▁uncle	-9.54561
▁outside	-9.54575
▁four	-9.54723
▁tarea	-9.54739
▁sunday	-9.54741
▁key	-9.54751
▁palabras	-9.54866
▁bet	-9.54905
▁esperaba	-9.54915
▁blame	-9.55187
▁travel	-9.55369
▁quieras	-9.55384
▁gets	-9.55457
▁asunto	-9.5549
▁color	-9.55987
▁anybody	-9.56048
▁decidió	-9.56049
▁dame	-9.56147
podrías	-9.56157
▁bank	-9.5622
▁visitar	-9.56231
▁pain	-9.56488
aron	-9.56557
▁order	-9.56888
▁break	-9.56897
▁speaks	-9.5697
amos	-9.56983
▁cuánto	-9.57002
▁cup	-9.57008
▁otros	-9.57113
▁estará	-9.57368
▁conoce	-9.57476
▁golf	-9.57546
▁única	-9.57557
▁cuándo	-9.5764
▁pan	-9.57675
▁mujeres	-9.57703
▁estaré	-9.57722
▁worked	-9.57751
▁extranjero	-9.57783
▁tall	-9.57863
▁heart	-9.58158
▁acaba	-9.58183
▁women	-9.58321
▁running	-9.58321
▁famous	-9.58323
▁examen	-9.58331
▁lista	-9.58405
▁necesitamos	-9.58462
▁puesto	-9.58548
▁canadiense	-9.58556
▁oí	-9.58859
▁strange	-9.5901
▁edificio	-9.5909
▁ice	-9.59287
▁vestido	-9.59307
▁equivocado	-9.59318
▁point	-9.59351
▁needed	-9.59609
▁asleep	-9.59865
▁dentro	-9.59865
▁herself	-9.59865
▁salud	-9.59929
▁amor	-9.59964
▁pequeña	-9.60116
▁whole	-9.60273
▁thinks	-9.60314
▁strong	-9.60601
▁different	-9.60604
▁biblioteca	-9.60646
▁último	-9.60646
▁taza	-9.60647
▁fuego	-9.60697
▁noise	-9.60873
▁debemos	-9.60956
▁lose	-9.61423
▁decisión	-9.61434
▁proud	-9.61434
▁perdí	-9.61441
▁glasses	-9.61492
▁diccionario	-9.61673
▁escuchar	-9.61701
▁eran	-9.61722
▁carne	-9.61736
▁apena	-9.62126
▁baseball	-9.62227
▁dangerous	-9.62228
▁quickly	-9.62238
▁paid	-9.62245
▁tenido	-9.62252
ron	-9.62458
▁sound	-9.62536
▁explain	-9.62906
▁dictionary	-9.63027
▁floor	-9.63028
▁sombrero	-9.63028
▁library	-9.63029
▁montón	-9.63064
▁caminar	-9.63085
▁least	-9.63091
▁offer	-9.63093
▁raining	-9.63253
▁bag	-9.63332
▁popular	-9.63561
▁air	-9.6358
▁sale	-9.63663
▁telephone	-9.63678
▁aquel	-9.6379
▁llover	-9.63798
▁fútbol	-9.63834
▁éxito	-9.63834
▁poder	-9.63837
▁exactly	-9.63838
▁move	-9.63923
▁quieren	-9.64145
▁worry	-9.64549
▁conseguir	-9.64639
▁jardín	-9.64647
▁lluvia	-9.64647
▁interested	-9.64676
▁loved	-9.64748
▁empezar	-9.64786
▁mala	-9.64884
▁gatos	-9.64943
▁primer	-9.65106
▁win	-9.65173
▁alrededor	-9.65397
▁cayó	-9.65469
▁trabajando	-9.65494
▁agree	-9.65647
▁muerto	-9.65816
▁waited	-9.65865
▁cats	-9.66008
▁pass	-9.66135
▁safe	-9.6625
▁crazy	-9.66293
▁treinta	-9.66293
▁club	-9.66295
▁encontró	-9.66301
▁frente	-9.66302
▁exactamente	-9.66305
▁takes	-9.66694
▁cenar	-9.66773
▁return	-9.67005
▁poner	-9.67079
▁front	-9.67128
▁sitio	-9.67129
▁thirty	-9.67185
▁weight	-9.67229
▁decirle	-9.67332
▁restaurant	-9.67345
▁favorito	-9.67486
▁haría	-9.67519
▁played	-9.67701
▁words	-9.67801
▁health	-9.67933
▁concert	-9.67967
▁siete	-9.67967
▁baño	-9.67971
▁"¿	-9.67976
▁leyendo	-9.67982
▁sentido	-9.67984
▁hide	-9.67992
▁entonces	-9.68001
▁errores	-9.68091
▁problems	-9.68273
▁blanco	-9.68344
▁restaurante	-9.68351
▁inteligente	-9.68357
▁sal	-9.68476
▁sigue	-9.685
▁cry	-9.6872
▁poor	-9.68755
▁pensaba	-9.68824
▁llorar	-9.68831
▁lucky	-9.68832
▁concierto	-9.68849
"	-9.68895
▁severa	-9.68916
▁camisa	-9.69193
▁tenga	-9.69238
eres	-9.69314
▁result	-9.69319
▁loco	-9.69436
▁mad	-9.69462
g	-9.69641
▁béisbol	-9.69669
▁television	-9.69669
▁umbrella	-9.69669
▁certain	-9.69669
▁swimming	-9.69669
▁probabl	-9.6967
▁guitarra	-9.69676
▁men	-9.69679
▁seven	-9.69697
▁atención	-9.69698
▁pasando	-9.69717
ada	-9.69864
▁clases	-9.69958
cuánta	-9.70043
▁abogado	-9.70077
ited	-9.70101
▁pens	-9.70159
▁mistakes	-9.70268
▁broken	-9.70373
▁garden	-9.70407
▁guitar	-9.70523
▁half	-9.70533
▁dijiste	-9.70541
▁deal	-9.70853
▁walked	-9.70853
▁evening	-9.70876
▁opened	-9.70918
▁dormido	-9.70941
▁ganar	-9.71074
▁mira	-9.71264
▁peligro	-9.71387
▁paraguas	-9.714
▁prefiero	-9.714
▁somebody	-9.714
▁miró	-9.71403
▁wear	-9.71403
▁jugando	-9.71408
▁finally	-9.71452
▁venga	-9.71453
cabo	-9.71463
▁estuve	-9.71633
▁caso	-9.71822
▁aire	-9.71935
▁glass	-9.72213
u	-9.72228
▁dirección	-9.72278
▁estudiando	-9.7229
▁side	-9.72298
ción	-9.72455
▁seemed	-9.72464
▁choice	-9.72704
▁shirt	-9.72783
▁nuestros	-9.7316
▁road	-9.73163
el	-9.73171
▁pasada	-9.7319
▁llamar	-9.73434
▁movies	-9.73741
▁accept	-9.7392
▁peor	-9.73985
▁guess	-9.73985
▁almuerzo	-9.74055
rought	-9.74056
▁comió	-9.74057
▁entró	-9.74062
▁vendrá	-9.74143
▁dime	-9.74169
▁missed	-9.74262
▁abuelo	-9.74543
ate	-9.74737
▁llamó	-9.74956
▁universidad	-9.74956
▁feeling	-9.74988
▁animales	-9.75007
▁shut	-9.7506
▁haz	-9.75087
▁sad	-9.75184
▁mía	-9.75223
▁learned	-9.75338
▁pedí	-9.75627
▁expect	-9.75647
▁sent	-9.75706
▁talked	-9.75709
▁realize	-9.75783
▁either	-9.75865
▁figure	-9.75866
▁cuesta	-9.75873
▁driver	-9.75942
▁states	-9.76062
▁estaría	-9.76125
▁smoke	-9.76191
vas	-9.76224
▁patient	-9.76319
▁barco	-9.76366
▁lawyer	-9.7638
▁seguir	-9.76395
▁apple	-9.76441
▁lying	-9.76786
▁husband	-9.7679
▁siendo	-9.76804
▁deberes	-9.76813
▁sell	-9.76921
▁viven	-9.76948
▁estúpido	-9.77307
▁estabas	-9.77327
▁minute	-9.77377
▁rules	-9.77525
▁clear	-9.77667
▁thanks	-9.77683
▁quizá	-9.77709
▁feed	-9.7775
▁forward	-9.77803
▁arm	-9.77906
▁hat	-9.78124
▁dance	-9.78464
▁attention	-9.78643
▁leaving	-9.78643
▁rompió	-9.78643
▁situación	-9.78644
▁habría	-9.78646
▁completamente	-9.78648
▁mamá	-9.7865
▁rato	-9.7868
▁meat	-9.78786
▁fine	-9.7903
▁seeing	-9.79088
▁peso	-9.79219
▁ok	-9.79295
▁playa	-9.79496
▁danger	-9.79586
▁driving	-9.79587
▁opinión	-9.79587
▁twice	-9.79587
▁paris	-9.79648
turned	-9.79679
▁animals	-9.79689
▁crying	-9.79694
▁fishing	-9.79757
to	-9.79805
▁digas	-9.79805
▁boys	-9.79988
▁lago	-9.80005
▁arrive	-9.80021
▁mar	-9.80102
▁wall	-9.80184
▁pick	-9.80432
▁piensas	-9.80453
▁test	-9.80482
▁vacation	-9.8054
▁share	-9.8054
▁desk	-9.80546
▁finalmente	-9.80574
▁invited	-9.80634
▁irme	-9.80814
▁vale	-9.80845
▁drinking	-9.80864
▁promise	-9.81007
▁wash	-9.81044
▁control	-9.8105
▁decision	-9.81078
▁p	-9.81135
▁responder	-9.81237
▁case	-9.81284
▁normal	-9.81441
▁pudiera	-9.81501
▁situation	-9.81501
▁winter	-9.81501
▁imposible	-9.81503
▁terminó	-9.81508
▁probablemente	-9.81515
▁beach	-9.81519
▁sala	-9.81602
▁trata	-9.81627
aba	-9.81628
▁pen	-9.81641
▁sentó	-9.81645
▁known	-9.8183
▁llev	-9.82055
▁parís	-9.82472
▁invierno	-9.82473
▁ocupada	-9.82475
▁address	-9.82479
▁completely	-9.82485
▁grandfather	-9.82493
▁alive	-9.8252
▁solve	-9.82529
▁llevaba	-9.82589
▁lake	-9.82621
▁ayudarte	-9.82703
▁closed	-9.82741
▁ello	-9.8293
▁kids	-9.83004
▁peligroso	-9.83103
▁hermosa	-9.83118
▁minuto	-9.83143
▁cambiar	-9.83201
▁blue	-9.83452
▁traffic	-9.83452
▁divertido	-9.83452
▁airport	-9.83453
▁worried	-9.83453
▁ocurrió	-9.83461
▁papá	-9.83466
▁duele	-9.83475
▁visited	-9.83749
▁medio	-9.84069
▁mountain	-9.84135
▁seat	-9.84148
▁causa	-9.84258
puede	-9.84268
▁papel	-9.84376
▁boca	-9.84411
▁cuchillo	-9.84442
▁excuse	-9.84442
▁próxima	-9.84442
▁suppose	-9.84442
▁vaso	-9.84447
rank	-9.847
▁second	-9.85115
▁pedir	-9.85115
▁montaña	-9.85143
▁ticket	-9.85143
▁resolver	-9.85152
▁ship	-9.85156
▁pase	-9.85345
▁aeropuerto	-9.85442
▁shopping	-9.85442
▁atrás	-9.85443
▁pieza	-9.85444
▁meses	-9.85647
▁sleeping	-9.85759
▁learning	-9.8578
▁pena	-9.85789
crees	-9.86102
▁weekend	-9.8613
▁abroad	-9.86452
▁hubo	-9.86455
▁knife	-9.86455
▁estábamos	-9.86472
▁younger	-9.86495
▁per	-9.86507
▁casado	-9.86783
▁eggs	-9.86913
▁triste	-9.87171
▁guy	-9.87206
▁kiss	-9.87239
▁kitchen	-9.87473
▁londres	-9.87473
▁voz	-9.87473
▁abrió	-9.87473
▁cine	-9.87473
▁london	-9.87477
▁mayoría	-9.87506
▁vayas	-9.87571
▁carro	-9.87571
▁singing	-9.87616
▁promised	-9.87632
▁viajar	-9.87671
▁mantener	-9.87717
▁capital	-9.8804
▁hiciera	-9.88086
▁esos	-9.88103
▁less	-9.88232
▁worth	-9.88307
▁simple	-9.88442
▁writing	-9.88504
▁llegué	-9.88504
▁comido	-9.88504
▁intentando	-9.88514
▁suele	-9.88526
tú	-9.89138
▁except	-9.89544
▁empieza	-9.89545
▁wake	-9.89545
▁abrigo	-9.89547
▁ambos	-9.89548
▁desearía	-9.89557
▁venido	-9.89568
▁hiding	-9.89594
▁traje	-9.89614
▁passed	-9.897
ro	-9.89726
▁though	-9.89865
▁tie	-9.89951
▁diga	-9.90014
▁huevos	-9.90034
▁cocinar	-9.9021
▁abrir	-9.90366
▁begin	-9.90367
▁fight	-9.90438
▁dejes	-9.9045
▁serious	-9.90562
▁impossible	-9.90598
▁medicine	-9.90598
▁coat	-9.90598
▁escritorio	-9.90599
▁siguió	-9.90602
▁carry	-9.90622
▁worse	-9.90632
▁sitting	-9.90639
▁lamento	-9.90651
▁ideas	-9.90686
▁sense	-9.90749
▁recordar	-9.90866
▁doubt	-9.90878
querés	-9.91177
▁esas	-9.9123
▁morir	-9.91259
▁opinion	-9.91329
▁alta	-9.91373
▁machine	-9.91379
▁success	-9.91658
▁soccer	-9.91662
▁intentó	-9.91671
▁suelo	-9.91715
▁respecto	-9.91718
▁dile	-9.91759
▁also	-9.91789
▁tenés	-9.91828
▁grandes	-9.91872
▁manzanas	-9.91875
ya	-9.91954
▁partido	-9.92483
▁silla	-9.92501
▁manzana	-9.92522
▁contar	-9.92538
▁caliente	-9.92737
▁written	-9.92737
▁hablo	-9.9274
▁estuviera	-9.9274
▁desayuno	-9.92741
▁hacía	-9.92745
▁sun	-9.92746
▁bailar	-9.9276
▁consider	-9.93023
▁llaves	-9.93057
▁apples	-9.9318
▁pareces	-9.93308
tiene	-9.93559
▁piece	-9.93624
▁lleno	-9.93624
▁afuera	-9.93657
▁amable	-9.93758
▁corriendo	-9.93824
▁jefe	-9.93827
▁tendrá	-9.93882
▁saben	-9.939
▁serio	-9.93904
para	-9.94138
▁chicos	-9.94276
tion	-9.94454
▁derecho	-9.94715
▁fotos	-9.94717
▁bird	-9.94737
▁bebe	-9.94894
▁foreign	-9.94908
▁propia	-9.94923
▁cielo	-9.94923
▁corazón	-9.94923
▁trató	-9.94923
▁aquella	-9.94954
▁quedarme	-9.94979
▁funciona	-9.95
unque	-9.95076
▁listening	-9.95124
▁liked	-9.95288
▁taken	-9.95379
▁gas	-9.95407
alguna	-9.95552
▁matar	-9.95557
ha	-9.95642
▁rojo	-9.95832
▁count	-9.95917
▁clima	-9.95942
▁church	-9.96034
▁ninguno	-9.96034
▁detrás	-9.96034
▁felices	-9.96038
▁ocho	-9.96041
▁paciente	-9.96929
▁chocolate	-9.96942
▁chair	-9.96964
▁teach	-9.96981
▁brazo	-9.96982
▁happens	-9.97047
▁smart	-9.97157
▁iglesia	-9.97157
▁siguiente	-9.97157
▁sky	-9.97157
▁éste	-9.97158
▁mirando	-9.9718
▁noticias	-9.97205
▁expected	-9.97308
▁comprado	-9.97344
▁months	-9.9745
▁walking	-9.97494
▁american	-9.97509
▁salt	-9.97577
▁dicen	-9.976
▁irse	-9.97611
▁perfect	-9.97908
▁public	-9.97941
▁tierra	-9.98084
▁mensaje	-9.98092
▁precio	-9.98133
▁foot	-9.9819
▁save	-9.9821
▁iré	-9.98212
▁viendo	-9.98298
▁escribió	-9.98302
▁olvidó	-9.98307
▁confiar	-9.98394
▁girls	-9.98706
▁amo	-9.98866
▁mil	-9.98911
podría	-9.98941
▁languages	-9.98992
▁waste	-9.99033
▁past	-9.99106
▁caro	-9.99237
▁message	-9.99269
▁horse	-9.9929
▁diciendo	-9.99444
▁bread	-9.99444
▁pescado	-9.9947
▁segura	-9.9947
▁favorita	-9.99503
▁pretend	-9.99527
▁supongo	-9.99529
▁correcto	-9.99652
▁cause	-9.99825
▁correr	-9.99829
con	-10.0007
▁quiera	-10.0029
▁hermanos	-10.003
▁keys	-10.0032
▁torta	-10.0036
▁animal	-10.0042
▁sentence	-10.0045
▁contento	-10.0045
▁negro	-10.0045
▁tras	-10.0053
▁join	-10.0059
▁across	-10.0061
▁empleo	-10.0061
▁osaka	-10.0061
▁thousand	-10.0061
▁francia	-10.0061
▁boss	-10.0061
▁easily	-10.0061
▁shop	-10.0062
▁leído	-10.0062
▁ball	-10.0067
▁ves	-10.0082
▁pared	-10.0086
or	-10.0095
▁happening	-10.0095
cia	-10.0138
▁smile	-10.0148
▁quedé	-10.0152
▁llega	-10.0161
▁fault	-10.0162
▁anciano	-10.0165
▁periódico	-10.0165
▁domingo	-10.0167
▁gun	-10.0174
▁necesario	-10.0178
▁shot	-10.0178
▁comiendo	-10.0178
▁choose	-10.0178
▁novio	-10.0179
▁poca	-10.0179
▁comenzó	-10.018
▁refused	-10.0184
▁france	-10.021
▁querés	-10.0233
▁warm	-10.0234
▁cuál	-10.0243
▁sounds	-10.0252
▁pictures	-10.026
▁law	-10.0274
us	-10.0274
▁abierta	-10.0282
▁amiga	-10.0285
▁suena	-10.0298
▁pueblo	-10.0298
▁boyfriend	-10.0298
▁normalmente	-10.0301
▁carefully	-10.0305
▁necesitaba	-10.0306
▁inside	-10.0308
▁remind	-10.0322
▁lend	-10.0332
▁reglas	-10.0336
▁cream	-10.0343
▁nació	-10.0378
est	-10.0395
▁voice	-10.0405
▁vuelve	-10.0405
▁pizza	-10.0406
▁bath	-10.041
▁puente	-10.0418
▁sacó	-10.0418
▁almorzar	-10.0418
▁habló	-10.0419
▁novela	-10.0421
▁domingos	-10.0429
▁dejado	-10.0432
▁estés	-10.0434
▁quiet	-10.0478
▁surprise	-10.0511
▁novel	-10.0519
▁significa	-10.0535
▁yours	-10.0537
▁enemy	-10.054
▁future	-10.054
▁parar	-10.054
▁claro	-10.054
▁prisa	-10.054
▁ayudó	-10.0541
▁vosotros	-10.0543
▁quedarse	-10.0544
▁pon	-10.0555
▁usa	-10.0576
▁ride	-10.0587
▁pas	-10.0597
▁verme	-10.0602
▁date	-10.0605
▁honest	-10.0613
▁piso	-10.0654
▁hundred	-10.0656
▁noticia	-10.0658
▁college	-10.0663
▁hicieron	-10.0663
▁tarta	-10.0663
▁suddenly	-10.0665
▁evitar	-10.0665
▁campo	-10.0666
▁simplemente	-10.0667
▁llegado	-10.0667
▁contó	-10.0671
vimos	-10.0674
▁cooking	-10.068
iendo	-10.071
less	-10.0716
▁echar	-10.0721
▁cartas	-10.0726
acaso	-10.0739
▁escrito	-10.0743
▁bridge	-10.0779
▁pobre	-10.0783
▁president	-10.0784
▁quedar	-10.0785
▁chinese	-10.0788
▁heavy	-10.0788
▁encontrado	-10.0788
▁asiento	-10.0789
▁somewhere	-10.0789
▁slowly	-10.079
▁fear	-10.079
▁demás	-10.0794
▁laughed	-10.0797
▁c	-10.0801
th	-10.0802
ncluso	-10.0882
▁sign	-10.0886
▁gustaba	-10.0894
▁remain	-10.0899
▁escape	-10.0901
▁llegue	-10.0904
▁borracho	-10.0909
▁caballo	-10.0912
▁eye	-10.0914
▁couple	-10.0915
▁marry	-10.0915
▁policeman	-10.0915
▁translate	-10.0915
▁actually	-10.0916
▁cita	-10.0917
▁américa	-10.0918
▁presidente	-10.0919
▁gana	-10.0933
▁standing	-10.0935
▁varia	-10.094
▁stolen	-10.0942
▁decirme	-10.0959
▁fat	-10.1024
▁difference	-10.1034
▁helado	-10.1037
▁propio	-10.1041
▁newspaper	-10.1041
▁lloviendo	-10.1043
▁empty	-10.1043
▁pesar	-10.1046
▁humor	-10.1049
▁escribe	-10.1051
▁failed	-10.1051
▁entered	-10.1053
▁pescar	-10.1056
▁shower	-10.1061
▁fuimos	-10.1068
▁beat	-10.1081
▁buenos	-10.1082
▁green	-10.11
▁t	-10.1126
▁wor	-10.1129
▁entiende	-10.1131
ás	-10.1144
▁fix	-10.1161
▁rock	-10.1169
▁regret	-10.117
▁querría	-10.1172
▁twenty	-10.1173
▁experiencia	-10.1173
▁futuro	-10.1173
▁earth	-10.1173
▁necessary	-10.1173
▁acostumbrado	-10.1173
▁eight	-10.1174
▁idioma	-10.1174
▁blood	-10.1174
▁verdaderamente	-10.1174
▁mouth	-10.1175
▁prueba	-10.1177
▁estudia	-10.1182
▁sentía	-10.1194
▁report	-10.1214
▁escucha	-10.1219
▁correct	-10.1235
▁ama	-10.1285
▁brothers	-10.1288
▁experience	-10.1289
▁prison	-10.1303
▁dejé	-10.1304
▁nervous	-10.1304
▁público	-10.1304
▁orgulloso	-10.1305
▁funny	-10.1305
▁daño	-10.1305
▁casó	-10.1306
▁price	-10.1307
▁smell	-10.1307
▁habrá	-10.1307
▁larga	-10.1315
▁llevo	-10.1316
▁none	-10.1317
▁limpiar	-10.1325
▁moved	-10.1329
in	-10.1329
▁aware	-10.1344
▁plans	-10.1383
co	-10.1386
▁semanas	-10.1389
▁siente	-10.1402
▁compras	-10.141
▁luna	-10.1434
▁enfadado	-10.1436
▁azúcar	-10.1438
▁marido	-10.1438
▁button	-10.144
▁check	-10.1441
▁dientes	-10.1453
bajo	-10.1453
▁paseo	-10.1454
▁ley	-10.1474
▁toca	-10.1494
▁hará	-10.1543
▁sentí	-10.1556
▁fly	-10.1566
▁enfermedad	-10.1566
▁german	-10.1567
ought	-10.1568
▁durmiendo	-10.1573
▁storm	-10.1573
▁kyoto	-10.1573
▁tormenta	-10.1574
▁sugar	-10.1575
▁fall	-10.158
▁ponga	-10.1583
▁correo	-10.1585
▁ayudarme	-10.1595
▁viste	-10.1601
▁leaves	-10.1606
▁guys	-10.1609
▁volveré	-10.1622
▁sino	-10.1631
▁haces	-10.1658
▁india	-10.1669
▁eats	-10.1669
▁veía	-10.1672
▁seas	-10.1682
▁luego	-10.171
▁proyecto	-10.171
▁dijeron	-10.1712
▁enamorado	-10.1715
▁famoso	-10.1715
▁bottle	-10.1716
▁wonderful	-10.1718
▁sentado	-10.1718
▁pájaro	-10.1718
▁gift	-10.1721
▁perfecto	-10.1726
▁kissed	-10.1726
▁dado	-10.1742
▁buenas	-10.1758
▁clock	-10.1809
▁vario	-10.1814
▁deep	-10.1845
▁decide	-10.1845
▁llegará	-10.1849
▁stood	-10.1849
▁veinte	-10.1849
▁negó	-10.1849
▁zoo	-10.1849
▁grew	-10.1849
▁wallet	-10.1849
ting	-10.1851
▁blind	-10.1851
▁bolsa	-10.1852
▁contacto	-10.1857
▁recuerda	-10.1858
▁diferente	-10.1858
▁joke	-10.1859
▁means	-10.188
▁verlo	-10.1884
▁staying	-10.1928
▁vimos	-10.1939
▁azul	-10.1983
▁corbata	-10.199
▁enferma	-10.199
▁sintió	-10.1991
▁matemáticas	-10.1994
▁agradable	-10.1996
▁received	-10.1996
▁native	-10.1997
▁preocupado	-10.2001
▁list	-10.2009
▁fact	-10.2012
▁bother	-10.2015
▁llena	-10.2032
▁cuidar	-10.2055
▁decirte	-10.2061
▁dad	-10.2074
▁mejores	-10.2079
▁prestar	-10.2087
▁murder	-10.2118
▁borrow	-10.212
▁especial	-10.2122
▁arma	-10.2123
▁valor	-10.2126
▁owe	-10.2129
▁jackson	-10.2132
▁taught	-10.2132
▁prometió	-10.2133
▁grave	-10.214
▁bonita	-10.2144
▁botella	-10.2147
▁bar	-10.2153
▁paso	-10.2154
▁king	-10.2157
▁calm	-10.2176
▁attend	-10.2265
▁discuss	-10.2267
▁speech	-10.227
▁planes	-10.2271
▁charge	-10.2273
▁discurso	-10.2277
▁abuela	-10.2277
▁beginning	-10.2277
▁oferta	-10.2277
▁worst	-10.2279
▁creía	-10.228
▁sight	-10.2286
▁smiled	-10.2296
▁birds	-10.2303
▁depende	-10.2309
▁dios	-10.2318
▁pone	-10.2332
▁igual	-10.2334
▁watched	-10.2339
ieron	-10.2373
▁temo	-10.2381
▁ayude	-10.2392
▁conocí	-10.2409
▁europe	-10.2412
▁común	-10.2422
▁nueve	-10.2424
▁tuviera	-10.2424
▁spring	-10.2424
▁decidido	-10.2425
▁common	-10.2425
▁inmediatamente	-10.2425
▁totalmente	-10.2425
▁quise	-10.2425
▁soup	-10.2426
▁aceptar	-10.2429
▁diferencia	-10.2429
▁film	-10.2436
▁vivía	-10.2436
▁bill	-10.2443
▁line	-10.2446
ce	-10.2449
▁alegr	-10.2451
▁herido	-10.2451
▁hang	-10.2497
▁parado	-10.251
▁yen	-10.2525
▁village	-10.2574
▁encima	-10.2574
▁llueve	-10.2574
▁máquina	-10.2574
▁tampoco	-10.2574
▁information	-10.2574
▁información	-10.2574
▁planning	-10.2574
▁built	-10.2574
▁neither	-10.2575
▁tratando	-10.2576
▁sopa	-10.2577
▁podrá	-10.2581
▁fruit	-10.2588
▁top	-10.2588
▁cambio	-10.2591
urante	-10.2593
▁trees	-10.2597
▁fit	-10.2618
▁haberlo	-10.262
▁feelings	-10.264
▁deje	-10.2655
▁succeed	-10.2713
▁crowd	-10.2715
▁exam	-10.2716
p	-10.2717
▁europa	-10.2725
▁levantó	-10.2725
▁silencio	-10.2725
▁shall	-10.2725
▁assume	-10.2725
▁cheese	-10.2725
▁enojado	-10.2725
▁guapa	-10.2726
▁sorprendió	-10.2726
▁anywhere	-10.2726
▁moon	-10.2727
▁enseñó	-10.2727
▁hago	-10.2731
▁darle	-10.2744
▁volverá	-10.2765
eso	-10.2774
▁god	-10.278
▁grow	-10.2829
alguien	-10.2831
▁comí	-10.285
▁primavera	-10.2879
▁repente	-10.2879
▁studied	-10.2879
▁roto	-10.2879
▁soportar	-10.288
▁cierra	-10.2882
▁single	-10.2886
▁type	-10.2889
▁sentimientos	-10.289
▁odia	-10.2894
▁despierto	-10.2896
▁picnic	-10.2896
▁carrera	-10.2899
▁rang	-10.2901
▁rey	-10.2904
▁enemigo	-10.2904
▁junto	-10.2907
▁olvidé	-10.2911
▁tuyo	-10.2911
▁lavar	-10.2924
▁weeks	-10.2941
▁hacen	-10.2947
▁abajo	-10.2972
▁bear	-10.2974
▁dan	-10.2992
▁deserve	-10.302
▁sepa	-10.3026
▁usual	-10.3029
▁menor	-10.303
▁alemán	-10.3035
▁conocido	-10.3035
▁fuji	-10.3035
▁project	-10.3035
▁slept	-10.3035
▁sorpresa	-10.3035
▁botón	-10.3035
▁mintiendo	-10.3035
▁paz	-10.3035
▁apartment	-10.3035
▁guilty	-10.3036
▁respect	-10.3037
▁teeth	-10.3038
▁quedarte	-10.3047
án	-10.3047
▁sorprendido	-10.3061
▁web	-10.3062
▁resto	-10.3078
▁puedas	-10.3099
▁andar	-10.31
▁leg	-10.3118
▁fill	-10.3142
▁baja	-10.3153
▁forgive	-10.3153
▁apologize	-10.3179
▁welcome	-10.3179
▁bosque	-10.3194
▁history	-10.3194
▁yellow	-10.3194
▁estáis	-10.3194
▁grandmother	-10.3195
▁ganó	-10.3195
▁adelante	-10.3195
▁tonto	-10.3195
▁lentes	-10.3196
▁rule	-10.3204
▁locked	-10.3208
▁saturday	-10.3216
▁deseo	-10.3223
▁ésta	-10.3226
▁plays	-10.3229
▁painting	-10.3231
▁verde	-10.3249
▁tengas	-10.3277
▁cards	-10.3297
ver	-10.3308
▁convince	-10.334
▁coger	-10.3343
▁funeral	-10.3355
▁bike	-10.3355
▁fence	-10.3355
▁resfriado	-10.3355
▁earlier	-10.3356
▁seguridad	-10.3356
▁mitad	-10.3356
▁immediately	-10.3356
▁prestado	-10.3358
▁nine	-10.337
▁mom	-10.3379
▁agreed	-10.3385
▁alegra	-10.339
▁quitó	-10.339
▁pelota	-10.3392
▁cualquiera	-10.3395
▁duda	-10.3407
▁sonó	-10.3413
cogió	-10.3414
▁olvides	-10.3416
▁player	-10.3433
b	-10.3438
▁likely	-10.3438
▁drinks	-10.3441
▁tomado	-10.3504
▁pájaros	-10.3509
▁cars	-10.3512
▁jóvenes	-10.3519
▁medicina	-10.3519
▁vuelto	-10.3519
▁vuestra	-10.3519
hrew	-10.352
▁premio	-10.352
▁wedding	-10.3521
▁held	-10.3521
▁throw	-10.3522
ré	-10.353
▁tele	-10.3535
▁pintura	-10.3551
▁esperanza	-10.3551
▁segundo	-10.3553
▁finger	-10.3555
▁star	-10.3557
▁ojo	-10.3559
▁idiota	-10.3561
▁tratar	-10.3578
▁sabemos	-10.3604
▁hacerte	-10.3635
▁crime	-10.3647
▁películas	-10.3651
▁pertenece	-10.3659
▁pocos	-10.368
▁despacio	-10.3686
▁prisión	-10.3686
▁ahead	-10.3686
▁classroom	-10.3686
▁satisfied	-10.3686
▁rápidamente	-10.3687
▁olvidado	-10.3687
▁intención	-10.3687
▁boat	-10.3687
▁ladrón	-10.3688
▁taller	-10.3689
▁culpable	-10.369
▁intentar	-10.3695
▁painted	-10.3699
idad	-10.3701
▁returned	-10.3713
▁grupo	-10.3721
▁estudio	-10.3721
▁vieja	-10.3722
▁asking	-10.378
▁rid	-10.3788
▁alarm	-10.3789
▁queso	-10.3827
▁breath	-10.3829
▁computador	-10.3835
1	-10.3844
▁ordenador	-10.3849
▁alemania	-10.3855
▁canadá	-10.3855
▁multitud	-10.3855
▁cruel	-10.3856
▁memoria	-10.3856
▁hermoso	-10.3856
▁diario	-10.3856
▁extra	-10.3857
▁digo	-10.3858
▁germany	-10.386
béis	-10.3866
▁allowed	-10.3869
▁tears	-10.387
▁árboles	-10.3871
▁picked	-10.3877
▁listened	-10.3896
▁vuestro	-10.3897
▁otras	-10.3914
▁fired	-10.3919
▁ech	-10.3934
▁oro	-10.3957
▁alcohol	-10.3958
▁negocios	-10.397
▁admit	-10.3972
▁interesa	-10.398
▁personal	-10.401
▁veré	-10.4026
▁support	-10.4028
▁ashamed	-10.4028
▁escuchó	-10.4028
▁furniture	-10.4028
▁izquierda	-10.4028
▁paciencia	-10.4028
▁tráfico	-10.4028
▁woke	-10.4028
▁gustó	-10.4028
▁video	-10.4028
▁government	-10.4028
▁oyó	-10.4028
▁cansada	-10.4029
▁escuchando	-10.403
▁conocía	-10.4031
▁position	-10.4032
▁faster	-10.4033
▁paint	-10.4033
▁covered	-10.4037
▁harder	-10.404
▁dressed	-10.406
▁preferiría	-10.4063
▁museo	-10.4064
▁museum	-10.4064
▁espalda	-10.407
era	-10.4073
▁tema	-10.4079
▁miles	-10.4084
son	-10.4088
f	-10.4089
▁hablan	-10.4101
▁wears	-10.4114
▁special	-10.4189
▁sientes	-10.4201
▁gafas	-10.4203
▁university	-10.4203
▁quiso	-10.4203
▁kioto	-10.4204
▁cambiado	-10.4205
▁oscuro	-10.4206
▁interesado	-10.4207
▁bedroom	-10.4207
▁avoid	-10.4208
▁juega	-10.4208
▁tía	-10.4209
▁probable	-10.4211
▁casarse	-10.4214
▁decid	-10.4218
▁noticed	-10.4219
▁washing	-10.4221
▁vayamos	-10.4222
▁aunt	-10.4225
▁laugh	-10.4226
▁honesto	-10.4229
▁correcta	-10.4236
▁allow	-10.4238
▁amaba	-10.4238
▁nervioso	-10.4243
▁principio	-10.4245
▁roja	-10.425
▁canada	-10.4257
▁liar	-10.4266
▁platos	-10.4286
▁traer	-10.4325
▁100	-10.4329
▁podés	-10.4332
▁rains	-10.4336
les	-10.4339
▁enter	-10.4341
▁judge	-10.4356
▁peace	-10.4359
▁fond	-10.4372
▁cerrar	-10.4374
▁absent	-10.4382
▁courage	-10.4382
▁sofá	-10.4382
▁vuelo	-10.4382
▁bajó	-10.4382
▁fresh	-10.4382
▁headache	-10.4382
▁robado	-10.4382
▁prize	-10.4382
▁unfortunately	-10.4383
▁subject	-10.4383
▁caminando	-10.4383
▁mostró	-10.4383
▁sonrió	-10.4383
▁raro	-10.4384
▁solución	-10.4384
▁golpeó	-10.4391
▁scared	-10.4391
▁theater	-10.44
▁vegetables	-10.4402
▁missing	-10.4411
▁pair	-10.4424
▁suit	-10.4424
▁lied	-10.4426
▁levanta	-10.4448
▁profesora	-10.4467
▁nuevos	-10.4473
▁forever	-10.4485
▁ellas	-10.4495
▁merece	-10.4514
▁stole	-10.4525
▁corta	-10.4525
ia	-10.4535
▁sang	-10.4535
▁enviar	-10.4543
▁notice	-10.4553
▁windows	-10.4556
▁pastel	-10.4558
▁arroz	-10.4564
▁course	-10.4564
▁cáncer	-10.4564
▁delicious	-10.4564
▁ejercicio	-10.4564
▁introduce	-10.4564
▁japoneses	-10.4564
▁permiso	-10.4564
▁sucedió	-10.4564
▁viento	-10.4564
▁boring	-10.4564
▁rice	-10.4564
▁gobierno	-10.4564
▁brush	-10.4564
▁horrible	-10.4564
rá	-10.4564
prendí	-10.4568
▁disappointed	-10.4568
▁complaining	-10.4569
▁cancer	-10.4572
▁arrested	-10.4572
▁buscar	-10.4581
▁entera	-10.459
▁abre	-10.4591
▁explained	-10.4591
▁paró	-10.4604
▁ended	-10.4604
▁map	-10.4611
▁preparado	-10.4613
▁trampa	-10.4616
▁chicas	-10.4616
▁ring	-10.4617
▁wood	-10.4618
mong	-10.4635
▁sacar	-10.4658
todavía	-10.4701
▁luck	-10.4745
▁body	-10.4749
▁friday	-10.4749
▁hobby	-10.4749
▁innocent	-10.4749
▁sonrisa	-10.4749
▁straight	-10.4749
▁viernes	-10.4749
▁spanish	-10.4749
▁dropped	-10.4749
▁consiguió	-10.4749
▁jacket	-10.4749
▁llorando	-10.475
▁chicago	-10.475
▁corrió	-10.475
▁hielo	-10.4751
▁centro	-10.4751
▁middle	-10.4751
▁desayunar	-10.4752
▁invite	-10.4753
▁cargo	-10.4754
▁preguntaba	-10.4759
▁ex	-10.4766
▁wind	-10.478
▁raise	-10.4786
▁island	-10.4786
▁lee	-10.4791
ciones	-10.4794
▁corto	-10.4798
▁bolígrafo	-10.4803
▁chino	-10.4805
▁pierna	-10.4807
▁llamada	-10.4807
▁soldiers	-10.4809
▁soldados	-10.4809
▁rent	-10.482
▁escaleras	-10.4827
▁answered	-10.4832
▁sports	-10.4834
▁tra	-10.4835
▁conocen	-10.4845
▁ducha	-10.4849
▁arreglar	-10.4851
▁familiar	-10.4896
▁corre	-10.4901
▁partir	-10.4917
▁parecen	-10.4919
▁post	-10.4924
▁bare	-10.4936
▁heat	-10.4936
▁aburrido	-10.4938
▁encuentro	-10.4938
▁hicimos	-10.4938
▁instead	-10.4938
▁license	-10.4938
▁purpose	-10.4938
▁stuck	-10.4938
▁understood	-10.4938
▁truck	-10.4938
▁recognize	-10.4938
▁guste	-10.4938
▁linda	-10.4939
▁bored	-10.4941
▁actor	-10.4941
▁race	-10.4941
▁yenes	-10.4946
▁reached	-10.4946
bido	-10.4947
▁bella	-10.4963
▁ordered	-10.4968
▁nuestras	-10.4973
▁limpia	-10.4988
▁rara	-10.4991
▁discutir	-10.4994
▁frase	-10.4994
▁verdadero	-10.4997
▁fruta	-10.4997
▁flower	-10.5
▁casada	-10.5003
▁cd	-10.5023
▁f	-10.5027
▁belongs	-10.503
▁permitir	-10.5058
▁conocer	-10.5066
▁duerme	-10.5089
▁appreciate	-10.5114
▁attack	-10.5118
▁drop	-10.512
▁natural	-10.5121
▁af	-10.5126
▁inocente	-10.513
▁intelligent	-10.513
▁lápiz	-10.513
▁opción	-10.513
▁duty	-10.513
▁viviendo	-10.513
▁stick	-10.513
▁conductor	-10.513
▁llame	-10.513
▁sweater	-10.513
▁accused	-10.5131
▁profundamente	-10.5131
▁power	-10.5131
▁dishes	-10.5132
▁manejar	-10.5136
▁seriously	-10.5138
▁madera	-10.5142
▁low	-10.5145
▁convinced	-10.5148
▁extreme	-10.515
▁tuya	-10.5157
▁países	-10.5159
▁darme	-10.5159
▁explicar	-10.5181
▁cerrada	-10.519
▁satisfecho	-10.5191
▁singer	-10.5193
▁promesa	-10.5194
▁negocio	-10.5197
▁contact	-10.5221
▁dedo	-10.5246
▁español	-10.5265
▁agrada	-10.5278
▁precios	-10.528
▁legs	-10.5294
▁fail	-10.5314
▁general	-10.532
▁account	-10.5326
▁awake	-10.5326
▁explanation	-10.5326
▁frecuencia	-10.5326
▁japonesa	-10.5326
▁midnight	-10.5326
▁segunda	-10.5326
▁tarjeta	-10.5326
▁behavior	-10.5326
▁cortó	-10.5326
▁space	-10.5326
▁respondió	-10.5326
▁isla	-10.5327
▁absolutely	-10.5327
▁mapa	-10.5337
▁elegir	-10.534
▁sangre	-10.5342
▁saved	-10.5353
▁san	-10.5359
▁darte	-10.537
▁comenzar	-10.5386
▁exercise	-10.5388
▁rica	-10.539
▁cantante	-10.539
▁incendio	-10.5391
▁nativo	-10.5392
▁pencil	-10.5393
▁encuentra	-10.5393
▁broma	-10.5394
▁mentira	-10.54
▁lock	-10.5404
▁intenta	-10.5404
▁speaker	-10.5409
▁irte	-10.5454
ca	-10.5459
ford	-10.5474
▁mirar	-10.5475
esto	-10.5482
▁believed	-10.5488
▁fool	-10.5513
▁decidir	-10.5516
▁hung	-10.5524
▁cool	-10.5524
▁consciente	-10.5526
▁cuerpo	-10.5526
▁england	-10.5526
▁escuché	-10.5526
▁harvard	-10.5526
▁injured	-10.5526
▁cash	-10.5526
▁chaqueta	-10.5526
▁medianoche	-10.5526
▁explicación	-10.5526
▁recently	-10.5527
▁bigger	-10.5528
▁shy	-10.5528
▁huele	-10.5528
▁entire	-10.5532
▁averiguar	-10.5536
▁sooner	-10.5538
▁fighting	-10.5546
▁pies	-10.5552
él	-10.5558
▁crimen	-10.5573
▁enseñar	-10.5576
▁cuerda	-10.559
▁group	-10.5595
▁entrada	-10.5598
▁flor	-10.56
▁orden	-10.5605
▁romper	-10.5609
▁hables	-10.564
na	-10.564
ful	-10.5658
▁agarr	-10.5661
robó	-10.567
podemos	-10.5682
ted	-10.5706
id	-10.571
▁cruz	-10.5726
▁prices	-10.5726
▁hid	-10.5727
▁gold	-10.5728
▁idiomas	-10.5729
▁accord	-10.573
▁view	-10.573
▁espacio	-10.573
▁fiebre	-10.573
▁murieron	-10.573
▁nací	-10.573
▁pasaporte	-10.573
▁escribiendo	-10.573
▁passport	-10.573
▁dirty	-10.573
▁copy	-10.5731
▁descanso	-10.5731
▁dispuesto	-10.5732
▁salvo	-10.5732
▁querías	-10.5734
▁healthy	-10.5738
▁tenéis	-10.5748
▁human	-10.5753
▁accepted	-10.5758
▁daré	-10.5758
▁convencer	-10.5779
▁sold	-10.5786
▁employees	-10.5786
▁risk	-10.5803
▁línea	-10.5803
▁cookies	-10.5803
▁modo	-10.581
▁resultado	-10.581
▁hey	-10.5818
▁keeps	-10.5829
▁yes	-10.5832
▁compare	-10.584
▁dices	-10.5855
▁bell	-10.5877
▁anda	-10.5881
▁art	-10.5889
▁protect	-10.5891
▁apareció	-10.5902
▁relax	-10.5916
▁dancing	-10.5938
▁inglaterra	-10.5938
▁themselves	-10.5938
▁toilet	-10.5938
▁mood	-10.5938
▁sisters	-10.594
▁size	-10.5941
▁aprendiendo	-10.5943
▁pedirle	-10.5945
▁ocultar	-10.5947
▁laughing	-10.595
▁bote	-10.595
▁card	-10.595
▁fuiste	-10.5956
▁harm	-10.5966
▁pintar	-10.5974
▁feels	-10.599
▁empleados	-10.6007
▁boda	-10.6016
▁bonito	-10.6017
▁sábado	-10.6019
▁muchacho	-10.6019
▁página	-10.6019
▁deporte	-10.6024
ió	-10.6043
".	-10.6048
▁dreams	-10.606
▁encantan	-10.6074
▁talks	-10.6087
▁necesitan	-10.6089
.000	-10.6094
adamente	-10.6096
▁trae	-10.6098
▁italia	-10.6108
▁tanta	-10.6128
▁ventanas	-10.6132
▁hermanas	-10.6142
▁fair	-10.6147
▁cien	-10.615
giving	-10.615
▁absoluta	-10.6151
▁lonely	-10.6151
▁casualidad	-10.6151
▁derecha	-10.6151
▁fresco	-10.6151
▁suicide	-10.6151
▁billetera	-10.6152
▁monte	-10.6152
▁fever	-10.6152
▁involved	-10.6153
▁italy	-10.6153
▁explicó	-10.6154
▁motor	-10.6156
▁hazlo	-10.6157
▁pregunté	-10.6158
▁preocupes	-10.6164
▁canciones	-10.6181
aste	-10.619
▁recibir	-10.6199
▁idiot	-10.6219
▁gusto	-10.6231
▁política	-10.6234
▁handed	-10.6235
▁magazine	-10.6235
▁maleta	-10.6236
▁importar	-10.6247
ella	-10.6269
▁irá	-10.6293
▁vivid	-10.6297
ría	-10.6327
▁treat	-10.6354
ación	-10.6357
▁exist	-10.6359
▁mente	-10.6359
▁knock	-10.636
k	-10.6361
▁sentir	-10.6363
▁escapar	-10.6364
▁cheap	-10.6367
▁comienza	-10.6368
▁cárcel	-10.6368
▁genial	-10.6368
▁seldom	-10.6368
▁comportamiento	-10.6369
▁asesinato	-10.6369
▁cambió	-10.6369
▁oscuridad	-10.6369
▁propuesta	-10.6369
▁bromeando	-10.6369
▁perdón	-10.6369
▁vine	-10.6369
▁robaron	-10.6371
▁butter	-10.6371
▁fría	-10.6371
▁oil	-10.6372
▁cumplir	-10.6372
▁acabó	-10.6373
▁mató	-10.6374
▁recibió	-10.6374
▁prove	-10.6375
▁solas	-10.6385
▁arte	-10.6391
▁fed	-10.6391
▁expecting	-10.6392
▁considered	-10.6394
▁pasamos	-10.6398
▁followed	-10.6407
▁pasará	-10.6414
▁vuelva	-10.6417
▁begins	-10.6419
▁casar	-10.6446
▁leí	-10.6446
▁chicken	-10.6451
▁rained	-10.6451
▁flight	-10.6454
▁revista	-10.6459
▁luces	-10.6469
▁calling	-10.6478
▁lack	-10.6479
▁suyo	-10.648
▁hablas	-10.6494
▁hablado	-10.6509
▁piernas	-10.6522
▁uso	-10.6551
jo	-10.6555
▁das	-10.6572
▁honor	-10.6575
▁countries	-10.6591
▁jealous	-10.6591
▁pérdida	-10.6591
▁sencilla	-10.6591
▁thief	-10.6591
▁roof	-10.6591
▁suspect	-10.6591
▁dudo	-10.6591
▁continue	-10.6591
▁cometido	-10.6591
▁destino	-10.6591
▁math	-10.6592
▁cried	-10.6593
▁importaría	-10.6593
▁podé	-10.6597
▁techo	-10.6597
▁managed	-10.6598
▁trabajó	-10.6599
▁cerró	-10.6602
▁land	-10.6602
▁llamaré	-10.6605
▁fácilmente	-10.6606
▁besó	-10.6609
▁muebles	-10.661
▁eras	-10.6614
▁dedos	-10.6614
amente	-10.6615
▁hagamos	-10.6619
▁lay	-10.6633
áis	-10.6635
▁volar	-10.6639
▁vote	-10.6662
▁blanca	-10.6681
▁trozo	-10.6684
▁pocket	-10.6685
▁preguntar	-10.6699
▁admitt	-10.6704
▁cortar	-10.6709
▁meant	-10.6727
conoces	-10.6733
los	-10.68
▁conoces	-10.6801
▁útil	-10.6811
go	-10.6816
▁ante	-10.6818
▁ciego	-10.6818
▁eventually	-10.6818
▁football	-10.6818
▁hokkaido	-10.6818
▁inmediato	-10.6818
▁internet	-10.6818
▁ourselves	-10.6818
▁quince	-10.6818
▁solution	-10.6818
▁famosa	-10.6818
▁camión	-10.6818
▁facilidad	-10.6818
▁mediodía	-10.6818
▁forgotten	-10.6818
▁memory	-10.6818
▁excelente	-10.6819
▁salido	-10.6819
▁quédate	-10.6823
▁rope	-10.6827
▁llamado	-10.6828
▁climbed	-10.6829
▁galletas	-10.6832
▁lágrimas	-10.6832
▁entero	-10.6834
▁raised	-10.6837
▁subió	-10.684
▁ma	-10.6843
▁extrem	-10.6868
tu	-10.6877
▁taste	-10.6906
▁supiera	-10.6916
▁piedra	-10.6917
▁dulce	-10.6919
▁neighbor	-10.6919
▁gra	-10.692
▁stranger	-10.6929
▁rumor	-10.693
▁hable	-10.6937
▁sueños	-10.6938
▁games	-10.6958
▁preparar	-10.7003
▁diet	-10.7019
▁enseña	-10.7031
▁jokes	-10.7034
▁appear	-10.7038
▁canta	-10.705
▁rude	-10.705
▁barato	-10.7051
▁propósito	-10.7051
▁stairs	-10.7051
▁teatro	-10.7051
▁escondiendo	-10.7051
▁sabido	-10.7051
▁unlikely	-10.7051
▁corner	-10.7051
▁recibí	-10.7051
▁denied	-10.7051
▁lady	-10.7053
▁useful	-10.7053
▁menu	-10.7054
▁step	-10.7056
▁delante	-10.7056
▁forced	-10.706
▁acabado	-10.706
▁continued	-10.7068
▁tendré	-10.7069
▁doble	-10.7077
▁dieta	-10.7077
▁compraste	-10.7079
▁washed	-10.708
▁helping	-10.7107
▁extraña	-10.7111
▁sois	-10.7117
▁míos	-10.7124
▁quedaré	-10.7129
▁willing	-10.7145
▁ocupados	-10.7145
▁invitados	-10.7149
▁habit	-10.7153
▁sweet	-10.7153
▁bolsillo	-10.7156
▁claim	-10.7158
▁kid	-10.7159
▁parada	-10.7175
▁songs	-10.7177
usted	-10.7179
ies	-10.7179
▁debía	-10.7203
ban	-10.722
▁lenguas	-10.7241
▁losing	-10.725
▁dejara	-10.7251
quiera	-10.7259
▁stuff	-10.7274
▁correos	-10.728
▁televisor	-10.7281
▁principal	-10.7282
▁similar	-10.7282
▁visa	-10.7286
▁comienzo	-10.7289
▁demasiada	-10.7289
▁discusión	-10.7289
▁fifteen	-10.7289
▁jazz	-10.7289
▁obra	-10.7289
▁particular	-10.7289
▁temperatura	-10.7289
▁accustom	-10.7289
▁million	-10.7289
▁feet	-10.7289
▁joking	-10.7289
▁above	-10.7289
▁peces	-10.7289
▁pez	-10.7289
▁goodbye	-10.7289
▁blew	-10.7289
▁comfortable	-10.7289
▁pity	-10.7289
▁south	-10.7289
▁educación	-10.7289
▁pegó	-10.729
▁trap	-10.729
▁éstos	-10.729
▁sushi	-10.7291
▁felicidad	-10.7292
▁happiness	-10.7292
▁invitó	-10.7293
▁confused	-10.7293
▁describe	-10.7295
▁últimamente	-10.7304
▁dumb	-10.7308
▁prepared	-10.7309
▁fixed	-10.7311
▁escaped	-10.7318
▁contestar	-10.7322
▁beso	-10.7325
eron	-10.7327
▁cometer	-10.7327
▁doce	-10.7346
▁mo	-10.7354
▁add	-10.7359
ga	-10.74
▁season	-10.7403
vivió	-10.7407
▁ayudara	-10.7439
cted	-10.7456
▁pelea	-10.7484
ness	-10.7484
▁llamas	-10.7493
▁iremos	-10.7511
it	-10.7516
▁cruzar	-10.7532
▁recommend	-10.7533
▁adentro	-10.7533
▁appointment	-10.7533
▁disparó	-10.7533
▁llueva	-10.7533
▁request	-10.7533
▁juice	-10.7533
▁levanté	-10.7533
▁distancia	-10.7533
▁tongue	-10.7533
▁anyway	-10.7534
▁excited	-10.7534
▁arriba	-10.7534
▁drugs	-10.7535
▁gate	-10.7538
▁burned	-10.7541
▁brave	-10.7542
▁distance	-10.7545
▁asistir	-10.7545
▁armas	-10.7557
hap	-10.7568
▁americans	-10.7571
▁querían	-10.7574
▁cola	-10.7584
▁aquellos	-10.76
▁espere	-10.7601
▁mountains	-10.7609
arse	-10.7611
▁traj	-10.7634
▁harto	-10.7642
▁fábrica	-10.7644
▁muñeca	-10.7646
▁conduce	-10.7647
▁stone	-10.7649
▁letters	-10.765
▁vecino	-10.7651
▁calls	-10.7655
gged	-10.7658
▁lleve	-10.7666
ido	-10.7673
▁meaning	-10.7681
▁condition	-10.7688
va	-10.7692
▁programa	-10.7701
tuvieron	-10.7712
▁fingers	-10.773
▁descubri	-10.7735
▁pinta	-10.774
▁fingi	-10.7743
▁tenían	-10.7765
▁planea	-10.7765
ese	-10.7767
▁distinguir	-10.777
▁intend	-10.777
▁paga	-10.7774
bbed	-10.7778
▁tight	-10.7778
▁allergi	-10.7779
▁enorme	-10.778
▁jugador	-10.7782
▁attempt	-10.7783
▁supermarket	-10.7783
▁supermercado	-10.7783
▁temperature	-10.7783
▁hablé	-10.7783
▁esquina	-10.7783
▁gratis	-10.7783
▁argue	-10.7783
▁bathroom	-10.7783
▁gordo	-10.7783
▁llamé	-10.7783
▁encontramos	-10.7783
▁ése	-10.7783
▁intenté	-10.7783
▁basura	-10.7783
▁llámame	-10.7783
▁levantarse	-10.7787
▁increíble	-10.7787
▁jumped	-10.7794
▁bomb	-10.7795
▁llegamos	-10.7797
▁hablante	-10.7799
▁vender	-10.7813
▁u	-10.7816
▁lights	-10.782
quiere	-10.782
▁act	-10.7821
▁contado	-10.7827
las	-10.7858
▁hojas	-10.7858
▁g	-10.7868
▁culpar	-10.7871
▁acaso	-10.7882
rse	-10.7883
▁preocupa	-10.7886
▁cuida	-10.7886
▁oranges	-10.7892
▁mentiroso	-10.7899
▁caballero	-10.7901
▁earthquake	-10.7904
▁suitcase	-10.7905
▁tastes	-10.7926
▁hacemos	-10.7934
▁hi	-10.7939
▁copia	-10.7954
time	-10.7963
man	-10.7982
▁regresar	-10.7993
seando	-10.8019
▁pretende	-10.8021
▁obey	-10.8026
▁escribí	-10.8029
▁area	-10.8029
▁absoluto	-10.8039
▁avergonzado	-10.8039
▁bebida	-10.8039
▁cuello	-10.8039
▁excellent	-10.8039
▁maestro	-10.8039
▁moving	-10.8039
▁nosotras	-10.8039
▁studies	-10.8039
▁naked	-10.8039
▁gentleman	-10.8039
▁teoría	-10.8039
▁bolso	-10.8039
▁factory	-10.8039
▁illness	-10.8039
▁email	-10.8039
▁someday	-10.8041
▁recibido	-10.8041
▁diré	-10.8041
▁preparando	-10.8041
▁discovered	-10.8042
▁preguntarle	-10.8044
▁pre	-10.8047
▁llegaste	-10.8047
▁mañanas	-10.8051
▁loud	-10.8056
w	-10.8057
▁climate	-10.806
▁limpio	-10.8061
▁pond	-10.8064
▁apagar	-10.8066
enza	-10.8067
▁saberlo	-10.8068
▁pleased	-10.8076
▁urgente	-10.8079
▁pieces	-10.8089
▁mt	-10.809
▁detalles	-10.8092
pareció	-10.8105
▁vete	-10.8113
▁hearing	-10.8142
ped	-10.8144
están	-10.8156
ándose	-10.8158
▁costumbre	-10.8163
▁mirada	-10.8165
▁cuidadoso	-10.8167
▁teníamos	-10.8167
▁vacía	-10.8168
▁fuerza	-10.8168
▁hole	-10.8169
▁fotografía	-10.817
▁metro	-10.8174
▁fondo	-10.8179
▁partes	-10.8188
▁runs	-10.8196
▁andando	-10.8206
▁ganado	-10.8211
prendió	-10.8212
▁meal	-10.8242
yo	-10.8261
▁imagin	-10.8261
▁reserva	-10.827
▁cross	-10.8273
▁climb	-10.828
▁reach	-10.829
▁hogar	-10.8295
▁pull	-10.8295
▁posibilidad	-10.8295
▁valiente	-10.8299
▁ajedrez	-10.8302
▁patience	-10.8302
▁proposal	-10.8302
▁resemble	-10.8302
▁examination	-10.8302
▁permission	-10.8302
▁lazy	-10.8302
▁sospechoso	-10.8302
▁naive	-10.8302
▁clever	-10.8302
▁menú	-10.8302
▁theory	-10.8302
▁awful	-10.8303
▁salary	-10.8303
▁cubierta	-10.8303
▁chess	-10.8303
▁anillo	-10.8305
▁esposo	-10.8305
▁stealing	-10.8309
▁dieron	-10.831
▁prevented	-10.831
▁bajar	-10.831
▁cute	-10.8311
▁rome	-10.8312
▁clearly	-10.8314
▁record	-10.8321
▁llegaron	-10.8323
▁mail	-10.8325
▁teaching	-10.8325
▁socks	-10.8329
▁verduras	-10.8329
▁sleepy	-10.8331
▁band	-10.8332
▁montar	-10.8338
▁dejaré	-10.8341
▁solved	-10.8343
▁vemos	-10.8345
▁drogas	-10.835
▁mayores	-10.8352
▁trusted	-10.8354
▁friendly	-10.8355
miento	-10.8357
▁ski	-10.8365
▁alcanzar	-10.8369
viste	-10.8382
▁vol	-10.8383
▁casados	-10.8386
▁matters	-10.8399
nte	-10.8402
▁naranjas	-10.8424
▁banda	-10.8432
▁pistola	-10.8433
▁atrapado	-10.8439
▁diría	-10.844
▁cousin	-10.844
▁skirt	-10.844
▁holiday	-10.8441
▁belong	-10.8442
▁vecinos	-10.8442
▁computadora	-10.8452
▁desea	-10.8453
▁apart	-10.8466
▁arrest	-10.8483
▁sh	-10.8485
▁molesta	-10.8488
▁despertar	-10.8504
▁oh	-10.8505
▁sonar	-10.8522
▁necesitar	-10.8529
▁urgent	-10.8531
▁jump	-10.856
▁smells	-10.8568
▁silent	-10.857
▁carretera	-10.8572
▁durmió	-10.8572
▁empresa	-10.8572
▁nariz	-10.8572
▁población	-10.8572
▁responsible	-10.8572
▁twelve	-10.8572
▁refrigerator	-10.8572
▁handsome	-10.8572
▁impidió	-10.8572
▁jail	-10.8572
▁pareja	-10.8572
▁sueldo	-10.8572
▁orgullosa	-10.8572
▁bottom	-10.8572
▁respeto	-10.8573
▁vistazo	-10.8573
▁profundo	-10.8573
▁pedido	-10.8573
▁cartera	-10.8574
▁grass	-10.8574
▁envió	-10.8575
▁due	-10.8576
▁guard	-10.8577
▁abandoned	-10.8578
▁apuesto	-10.8582
▁skiing	-10.8582
▁kick	-10.8583
▁suggested	-10.8583
▁texto	-10.8584
▁imagine	-10.8589
▁deaf	-10.8595
▁attended	-10.8595
▁difficulty	-10.8598
▁estuviste	-10.8609
▁papas	-10.862
h	-10.8622
▁duró	-10.8627
▁descansar	-10.8628
▁coge	-10.8629
▁profesores	-10.8634
▁adopt	-10.8652
ity	-10.866
▁verg	-10.8668
filled	-10.8675
remos	-10.8687
▁noon	-10.8688
▁estrellas	-10.8698
▁ears	-10.8703
▁ear	-10.8703
▁cuadro	-10.871
▁artículo	-10.8711
▁objetivo	-10.8714
▁terremoto	-10.8715
▁page	-10.8718
▁plato	-10.8719
▁huevo	-10.872
▁bomba	-10.8723
ry	-10.8724
▁poema	-10.8729
▁cabo	-10.8732
▁golpe	-10.8733
▁turno	-10.8736
▁farm	-10.8751
▁dura	-10.8759
iste	-10.876
▁debí	-10.8765
▁dormí	-10.8816
▁creí	-10.8819
,"	-10.8821
▁dry	-10.884
▁reír	-10.8843
▁match	-10.8844
▁slight	-10.8846
▁slow	-10.8847
▁bright	-10.8847
▁amount	-10.885
▁disculpe	-10.885
▁emergency	-10.885
▁estómago	-10.885
▁responsable	-10.885
▁sistema	-10.885
▁stories	-10.885
▁tímido	-10.885
▁amistad	-10.885
▁drove	-10.885
▁opportunity	-10.885
▁remedio	-10.885
▁dying	-10.885
▁ipad	-10.885
▁equivocada	-10.8851
▁confianza	-10.8851
▁preferido	-10.8851
▁neck	-10.8852
▁potatoes	-10.8852
▁agradecido	-10.8852
▁trago	-10.8852
▁completo	-10.8853
▁saludable	-10.8856
▁popula	-10.8858
▁ciento	-10.8859
▁bang	-10.8865
▁cantando	-10.8866
▁listos	-10.8867
▁teaches	-10.8867
▁quedado	-10.8868
▁sonido	-10.8871
▁calma	-10.8876
▁esperamos	-10.8878
▁kinds	-10.888
▁dale	-10.8882
▁levantar	-10.8883
▁probar	-10.8886
▁requiere	-10.8911
este	-10.8923
▁depends	-10.8925
so	-10.8936
mi	-10.8939
▁miembros	-10.8942
▁hablaba	-10.8962
▁poem	-10.899
▁lasted	-10.8993
▁dormitorio	-10.8997
▁estrella	-10.9005
▁naranja	-10.9005
▁tomando	-10.9005
▁sport	-10.9005
▁egg	-10.9005
▁rose	-10.9008
▁luce	-10.9009
io	-10.902
▁bite	-10.9026
▁hated	-10.9032
▁artist	-10.9032
▁hagan	-10.9062
ook	-10.9069
▁costs	-10.9072
▁noches	-10.9077
▁admiti	-10.9079
▁permite	-10.9118
▁tomé	-10.9122
tengo	-10.9126
▁compra	-10.9128
▁necesidad	-10.9129
bió	-10.9131
▁airplane	-10.9136
▁cincuenta	-10.9136
▁energy	-10.9136
▁lloró	-10.9136
▁mantequilla	-10.9136
▁neighborhood	-10.9136
▁plenty	-10.9136
▁relación	-10.9136
▁system	-10.9136
▁cabello	-10.9136
▁inútil	-10.9136
▁musician	-10.9136
▁esperó	-10.9136
▁market	-10.9136
▁hubiese	-10.9136
▁nurse	-10.9136
▁castillo	-10.9136
▁esquiar	-10.9136
▁ground	-10.9136
▁winning	-10.9136
▁matrimonio	-10.9136
▁convenció	-10.9137
▁agreement	-10.9137
▁prohibido	-10.9137
▁ejemplo	-10.9137
▁castle	-10.9138
▁upset	-10.9138
▁huge	-10.9138
▁definite	-10.9145
▁passengers	-10.9146
▁crossed	-10.9149
▁hill	-10.9152
▁flying	-10.9157
▁weak	-10.916
▁bebió	-10.9161
▁leyó	-10.9166
▁regalos	-10.9167
▁siga	-10.9171
▁classes	-10.9172
▁saltó	-10.9178
▁express	-10.9181
▁acordar	-10.9186
▁llen	-10.9186
▁visita	-10.9191
ir	-10.9205
▁com	-10.9207
▁prepare	-10.9214
▁tickets	-10.9223
▁alarma	-10.9226
▁caer	-10.9228
▁seré	-10.9249
▁rare	-10.9252
▁autos	-10.926
▁nor	-10.9276
▁vengas	-10.9278
▁rog	-10.928
▁pasatiempo	-10.9287
▁viejos	-10.9288
▁cab	-10.9291
▁motivo	-10.9291
▁scientist	-10.9294
▁bienvenido	-10.9294
▁esfuerzo	-10.9298
▁photo	-10.9298
▁neighbors	-10.93
▁buying	-10.9304
▁uses	-10.9305
▁acepta	-10.9307
▁detail	-10.9312
▁abra	-10.9332
▁mover	-10.9339
▁woods	-10.9343
▁divide	-10.9359
▁stars	-10.9366
▁proteger	-10.9394
▁diferentes	-10.9409
▁complete	-10.9412
▁hechos	-10.9413
▁wise	-10.9426
▁sharp	-10.9428
▁education	-10.9429
reció	-10.9429
safortunadamente	-10.943
▁confío	-10.943
▁conversation	-10.943
▁elevator	-10.943
▁españa	-10.943
▁falda	-10.943
▁improbable	-10.943
▁pantalones	-10.943
▁pool	-10.943
▁smiling	-10.943
▁eleven	-10.943
▁sofa	-10.943
▁subway	-10.943
▁center	-10.943
▁example	-10.943
▁fifty	-10.943
▁spain	-10.943
▁easier	-10.943
▁convencido	-10.943
▁cantidad	-10.943
▁thirsty	-10.943
▁bench	-10.9431
▁puse	-10.9431
▁louder	-10.9432
▁gritó	-10.9432
▁manager	-10.9432
▁pagó	-10.9432
▁stronger	-10.9435
▁llovió	-10.9435
▁significado	-10.9439
▁camina	-10.9439
▁habido	-10.944
▁querer	-10.9441
▁article	-10.9445
▁ignored	-10.9448
▁fuma	-10.9453
▁novelas	-10.9456
▁millas	-10.9457
▁llevas	-10.9458
▁drug	-10.946
dor	-10.9465
▁require	-10.9466
tendremos	-10.9468
▁invitar	-10.947
▁entra	-10.9477
▁doll	-10.9482
▁within	-10.9483
▁forest	-10.9489
▁loca	-10.9511
▁tarda	-10.9526
▁escritor	-10.9538
▁coma	-10.9567
▁asegurar	-10.9571
▁results	-10.9586
▁ingenuo	-10.9591
▁informe	-10.9592
▁afortunado	-10.9596
▁ésa	-10.9596
▁harías	-10.9599
▁cierta	-10.9599
▁estadounidense	-10.9602
▁orange	-10.9602
▁malas	-10.9608
▁venta	-10.9623
▁spends	-10.9642
▁dará	-10.9642
▁roma	-10.9662
▁suya	-10.9671
realmente	-10.9685
▁press	-10.9693
▁modern	-10.971
▁suffer	-10.9723
▁main	-10.9723
▁salí	-10.9724
▁sandwich	-10.9726
virtió	-10.9732
▁rehus	-10.9733
▁energía	-10.9733
▁huyó	-10.9733
▁ocean	-10.9733
▁paquete	-10.9733
▁puntual	-10.9733
▁rechazó	-10.9733
▁round	-10.9733
▁violence	-10.9733
▁área	-10.9733
▁conoció	-10.9733
▁violencia	-10.9733
▁kidding	-10.9733
▁pollo	-10.9733
▁puzzle	-10.9733
▁libertad	-10.9733
▁traducir	-10.9733
▁committed	-10.9733
▁ambas	-10.9734
▁asustado	-10.9735
▁tallest	-10.9735
▁empezado	-10.9736
▁third	-10.9738
▁confía	-10.9738
▁querido	-10.9739
▁mathematics	-10.9739
▁robar	-10.9739
▁abandonó	-10.974
▁generally	-10.974
▁caballos	-10.974
▁escuchado	-10.974
▁veamos	-10.9743
▁survived	-10.9744
▁beside	-10.9748
▁escriba	-10.9749
▁tratado	-10.9749
▁attacked	-10.9752
▁guests	-10.9756
▁conocemos	-10.976
▁artista	-10.9762
▁visité	-10.9773
▁horses	-10.9774
▁using	-10.9782
▁complain	-10.9788
▁starting	-10.9809
▁hablamos	-10.981
▁sur	-10.9817
▁jugo	-10.9818
▁sta	-10.9821
▁montañas	-10.9825
▁respuestas	-10.9831
▁members	-10.9832
▁imaginar	-10.9853
▁compar	-10.9856
▁estadounidenses	-10.9866
▁hurts	-10.9877
ero	-10.9886
▁pensado	-10.9888
▁riesgo	-10.9891
▁termina	-10.9902
▁conferencia	-10.9905
ón	-10.9907
▁intention	-10.9908
▁abierto	-10.9908
▁servicio	-10.991
▁hombro	-10.991
▁estúpida	-10.9912
▁escalera	-10.9915
▁invitado	-10.9916
▁resultados	-10.9929
▁ayudarle	-10.993
▁pelear	-10.9947
▁extranjeros	-10.9952
01	-10.9963
▁sundays	-10.9968
▁herir	-10.9976
ic	-10.9976
▁comen	-10.9982
aré	-10.9988
▁draw	-10.9991
red	-10.9996
tenés	-10.9997
je	-11.0007
▁plant	-11.0016
▁push	-11.0022
z	-11.0026
▁persuade	-11.0031
▁mention	-11.0036
▁fortuna	-11.0036
▁ignore	-11.0037
▁ocurrir	-11.0043
vés	-11.0045
▁aceptó	-11.0046
▁brown	-11.0046
▁calcetines	-11.0046
▁conversación	-11.0046
▁curious	-11.0046
▁equipaje	-11.0046
▁illegal	-11.0046
▁lincoln	-11.0046
▁maravilloso	-11.0046
▁october	-11.0046
▁octubre	-11.0046
▁pudimos	-11.0046
▁website	-11.0046
▁esperé	-11.0046
▁garage	-11.0046
▁colina	-11.0046
▁couch	-11.0046
▁washington	-11.0046
▁weird	-11.0046
▁trece	-11.0046
▁traté	-11.0046
▁curso	-11.0046
▁tough	-11.0046
▁lentamente	-11.0046
▁saliera	-11.0046
▁héroe	-11.0046
▁elección	-11.0046
▁gracioso	-11.0047
▁poniendo	-11.0047
▁pequeños	-11.0047
▁saliendo	-11.0047
▁tráeme	-11.0047
▁scolded	-11.0048
▁preocupada	-11.0048
▁supuesto	-11.0048
▁regaló	-11.0048
▁perfectamente	-11.0048
▁trabajadores	-11.0049
▁shelf	-11.0049
▁tendría	-11.0051
▁seguido	-11.0052
▁ascensor	-11.0053
▁esperemos	-11.0054
▁ayudarnos	-11.0055
▁smaller	-11.0055
▁perfectly	-11.0057
▁complained	-11.0058
▁verdadera	-11.0061
▁hello	-11.0062
▁jug	-11.0062
▁houses	-11.0067
▁nuevamente	-11.007
▁salvar	-11.0085
▁workers	-11.0086
▁quedamos	-11.0087
▁accidents	-11.0138
▁contract	-11.014
▁na	-11.0141
▁disfruta	-11.0148
émonos	-11.0148
▁quitar	-11.0151
▁teachers	-11.016
▁mess	-11.0165
▁díga	-11.0169
▁viva	-11.0182
▁deber	-11.0184
▁gira	-11.0198
sabe	-11.0199
▁piensan	-11.0217
▁músico	-11.0225
▁emergencia	-11.0225
▁cuánta	-11.0231
▁billete	-11.0232
▁disease	-11.0233
▁viniera	-11.0234
▁tend	-11.0237
▁answers	-11.0261
▁shoulder	-11.0291
nse	-11.0295
▁quedara	-11.0311
▁sepas	-11.0312
▁h	-11.0316
▁changes	-11.0319
▁pesca	-11.0326
▁supone	-11.0342
▁mentir	-11.0345
▁suggest	-11.0345
▁vende	-11.0347
▁refuse	-11.0353
▁repeat	-11.0356
he	-11.0356
▁adora	-11.0358
pa	-11.0362
▁quick	-11.0364
▁brasil	-11.0368
▁advantage	-11.0368
▁agujero	-11.0368
▁anciana	-11.0368
▁evil	-11.0368
▁exchange	-11.0368
▁marriage	-11.0368
▁mundial	-11.0368
▁plata	-11.0368
▁possibility	-11.0368
▁suéter	-11.0368
▁captain	-11.0368
▁millones	-11.0368
▁podido	-11.0368
▁regresó	-11.0368
▁breve	-11.0368
▁podamos	-11.0368
▁toalla	-11.0368
▁pregúntale	-11.0369
▁author	-11.0369
▁credit	-11.0369
▁vinieron	-11.0369
▁embarrassed	-11.0369
▁bald	-11.0369
▁granja	-11.0369
▁claramente	-11.037
▁gotten	-11.037
▁everywhere	-11.037
▁pale	-11.0371
▁betrayed	-11.0371
▁salida	-11.0371
▁nearest	-11.0372
▁sort	-11.0372
▁graduated	-11.0374
▁ability	-11.0375
▁levantarme	-11.0375
▁board	-11.0376
ri	-11.0377
▁progress	-11.0379
▁iguales	-11.0383
▁dijera	-11.0383
▁encontraste	-11.0383
podés	-11.0387
▁russian	-11.0388
▁director	-11.0391
▁fe	-11.0393
▁borrowed	-11.0396
▁apologized	-11.0399
▁grab	-11.0403
▁writer	-11.0407
▁skin	-11.0416
▁iría	-11.0416
▁sore	-11.0421
▁badly	-11.0425
▁venía	-11.0429
▁ghosts	-11.0436
▁norte	-11.0443
▁promet	-11.0449
▁toques	-11.0455
▁plu	-11.046
▁handle	-11.0461
il	-11.0476
▁disculpas	-11.0484
▁verle	-11.0512
costó	-11.052
▁salga	-11.0524
▁holidays	-11.0528
mp	-11.0534
▁schedule	-11.055
▁intento	-11.056
▁olvidar	-11.0562
▁boleto	-11.0565
▁vendría	-11.0565
▁deportes	-11.0572
mo	-11.0598
▁cercano	-11.061
ment	-11.0611
▁estarás	-11.0623
▁hero	-11.0642
▁enemigos	-11.0647
▁co	-11.0648
though	-11.0653
ita	-11.0662
estáis	-11.0663
▁experiment	-11.0672
piensas	-11.0674
▁local	-11.0685
▁cre	-11.0694
▁ilegal	-11.0694
▁débil	-11.0694
▁engine	-11.0695
▁licencia	-11.0699
▁hop	-11.0699
▁electric	-11.0701
▁apartamento	-11.0701
▁beauty	-11.0701
▁capitán	-11.0701
▁enseguida	-11.0701
▁estupendo	-11.0701
▁otoño	-11.0701
▁retraso	-11.0701
▁toward	-11.0701
▁zoológico	-11.0701
▁creyó	-11.0701
▁value	-11.0701
▁childhood	-11.0701
▁enfermera	-11.0701
▁conversar	-11.0701
▁armario	-11.0702
▁departamento	-11.0702
▁foolish	-11.0702
▁wild	-11.0702
▁acusado	-11.0703
▁master	-11.0703
▁ocultando	-11.0703
▁supper	-11.0703
▁puesta	-11.0703
▁friendship	-11.0703
▁celoso	-11.0704
▁detesto	-11.0705
▁estuvi	-11.0705
▁subir	-11.0705
▁tocando	-11.0706
▁contrato	-11.0706
▁useless	-11.0707
▁dé	-11.0708
▁agotado	-11.0709
▁vivimos	-11.071
▁original	-11.0711
cha	-11.0713
▁repaired	-11.0713
▁army	-11.0714
▁warned	-11.0714
▁apagó	-11.0715
▁pulled	-11.0717
▁cantó	-11.0722
▁pasajeros	-11.0722
▁dirá	-11.0723
▁esperado	-11.0723
▁falling	-11.0726
▁quedaron	-11.0731
▁amigas	-11.0732
▁vernos	-11.0733
▁nubes	-11.0735
▁traveling	-11.0746
▁acabar	-11.0747
▁escalar	-11.0747
ish	-11.0759
▁irnos	-11.076
▁fantasmas	-11.0763
▁enfadar	-11.0775
▁odian	-11.0789
▁alimentar	-11.0795
▁abandonar	-11.0802
▁besar	-11.0803
▁cuid	-11.0806
▁solos	-11.0807
▁quedes	-11.0809
▁paying	-11.0811
▁nose	-11.0814
▁marcha	-11.084
▁actuar	-11.086
▁llevan	-11.0889
tally	-11.0897
▁burn	-11.0905
▁despedido	-11.0906
▁accidentes	-11.0908
▁vuelvas	-11.0908
▁cambia	-11.0924
▁nuevas	-11.0927
▁promesas	-11.0931
▁warn	-11.0936
▁form	-11.0946
ión	-11.0947
▁letra	-11.0948
▁program	-11.0957
▁hecha	-11.0972
▁citizen	-11.1006
▁decía	-11.1006
ni	-11.1014
▁olvide	-11.1017
▁repair	-11.1024
un	-11.1031
▁search	-11.1036
▁consejos	-11.1039
▁polite	-11.1044
▁11	-11.1045
▁acercó	-11.1046
▁brazil	-11.1046
▁cuestión	-11.1046
▁curiosidad	-11.1046
▁desperté	-11.1046
▁fortune	-11.1046
▁genius	-11.1046
▁junio	-11.1046
▁mexico	-11.1046
▁mirror	-11.1046
▁razonable	-11.1046
▁silence	-11.1046
▁unhappy	-11.1046
▁dislike	-11.1046
▁grateful	-11.1046
▁towel	-11.1046
▁soltero	-11.1046
▁velocidad	-11.1046
▁available	-11.1046
▁private	-11.1046
▁robbed	-11.1046
▁interés	-11.1046
▁sencillo	-11.1046
▁collar	-11.1046
▁condiciones	-11.1046
▁definitivamente	-11.1047
▁trapped	-11.1047
▁espejo	-11.1047
▁consigo	-11.1047
▁aproximadamente	-11.1047
▁trato	-11.1048
▁ataque	-11.1048
▁colectivo	-11.1048
▁hunting	-11.1048
▁bebiendo	-11.1048
▁birth	-11.1049
▁despierta	-11.1049
▁pesado	-11.1049
▁volviendo	-11.1049
▁pagado	-11.1051
▁intentarlo	-11.1052
▁greatest	-11.1052
▁tail	-11.1053
▁comúnmente	-11.1054
▁esconder	-11.1054
▁piel	-11.1055
▁dis	-11.106
▁echo	-11.1062
▁appeared	-11.1065
▁deserted	-11.1067
▁practice	-11.1068
▁novels	-11.1069
éis	-11.1071
▁impuestos	-11.1072
▁larger	-11.1073
▁aprendido	-11.1074
▁computers	-11.1075
▁breathe	-11.1078
▁adonde	-11.1082
▁comprender	-11.1082
▁atrap	-11.1083
▁bello	-11.1084
▁cae	-11.1084
▁abrí	-11.1086
▁clouds	-11.1086
▁gast	-11.1088
▁italian	-11.1088
▁presta	-11.1088
▁sano	-11.109
▁depressed	-11.11
▁cleaning	-11.1103
!"	-11.1119
▁usando	-11.1122
▁nadando	-11.1125
▁names	-11.1125
▁stamps	-11.1128
▁ap	-11.113
▁seguros	-11.1144
▁echa	-11.1158
▁mando	-11.1159
▁presentes	-11.1182
pusieron	-11.1186
▁reparar	-11.1199
▁details	-11.1203
▁mu	-11.1204
▁primo	-11.122
▁iron	-11.1226
▁expert	-11.1255
▁material	-11.1259
▁relationship	-11.126
▁enfadada	-11.1261
▁tranquilo	-11.1261
▁muchacha	-11.1262
▁rosa	-11.1263
▁lindo	-11.1266
ías	-11.127
▁cigarette	-11.1271
▁canadienses	-11.1292
tió	-11.1296
▁autor	-11.1313
▁robo	-11.1315
▁hacerse	-11.1334
¿	-11.1351
▁marca	-11.1352
what	-11.1355
▁goal	-11.1358
▁chose	-11.1365
▁trabajaba	-11.1367
▁gives	-11.1377
▁señor	-11.1382
▁escondi	-11.1386
▁disturb	-11.139
▁shock	-11.1391
▁lies	-11.1392
▁prepar	-11.1396
▁automóvil	-11.1396
▁dificultad	-11.1397
▁sudden	-11.1399
▁thin	-11.1403
▁stomach	-11.1403
▁alcalde	-11.1403
▁arguing	-11.1403
▁basketball	-11.1403
▁escenario	-11.1403
▁failure	-11.1403
▁impresión	-11.1403
▁lecture	-11.1403
▁océano	-11.1403
▁polvo	-11.1403
▁ridículo	-11.1403
▁yokohama	-11.1403
▁bucket	-11.1403
▁llamo	-11.1403
▁pleasant	-11.1403
▁violín	-11.1403
▁buried	-11.1404
▁facebook	-11.1404
▁amazing	-11.1404
▁tiró	-11.1404
▁belleza	-11.1404
▁esperanto	-11.1404
▁changing	-11.1404
▁sugirió	-11.1404
▁suicidó	-11.1404
▁peel	-11.1404
▁exhausted	-11.1404
▁aprendiste	-11.1405
▁disappeared	-11.1405
▁despise	-11.1406
▁vosotras	-11.1406
▁pintó	-11.1407
▁nuts	-11.1408
▁sentarme	-11.1409
▁ciencia	-11.1409
▁cual	-11.1409
▁fallen	-11.1409
▁invented	-11.141
▁cometió	-11.1411
▁viniste	-11.1413
▁ausente	-11.1415
▁divorced	-11.1417
▁apaga	-11.1422
▁recoger	-11.1422
▁treated	-11.1424
▁disfrut	-11.1426
▁lower	-11.1427
▁ponerse	-11.1427
▁succeeded	-11.1433
▁queréis	-11.1433
eme	-11.1436
▁gritar	-11.1446
▁sospecha	-11.1451
▁snowing	-11.1464
▁descubrir	-11.1466
▁cooked	-11.1472
▁verla	-11.1475
▁detuvo	-11.1479
▁sand	-11.1487
▁starts	-11.1489
▁quedaba	-11.1496
▁productos	-11.1505
▁buses	-11.1509
▁miel	-11.1518
▁quejas	-11.1543
▁arms	-11.1549
,000	-11.1557
▁inter	-11.156
▁mismos	-11.1562
▁viaja	-11.1565
▁photos	-11.1566
pe	-11.1575
▁ayudará	-11.1579
▁ta	-11.1579
▁dejo	-11.1603
esta	-11.1608
▁interest	-11.1615
▁carrie	-11.1617
zó	-11.1622
▁termine	-11.1633
▁criminal	-11.1633
▁hábito	-11.1638
▁antiguo	-11.1639
▁altura	-11.164
▁saving	-11.1641
▁cookie	-11.1643
▁herida	-11.1649
ied	-11.1654
▁admitir	-11.166
▁pro	-11.1681
becoming	-11.1681
▁tareas	-11.1683
▁disculpa	-11.1684
▁quedan	-11.1692
▁gasta	-11.1698
▁cap	-11.1712
debería	-11.173
▁metal	-11.1735
pongo	-11.1736
▁civil	-11.1741
▁dentist	-11.1757
▁build	-11.1764
ers	-11.1764
▁steal	-11.1764
▁social	-11.1766
▁baile	-11.1766
▁suspicious	-11.1769
▁votar	-11.1773
▁alfombra	-11.1774
▁apoyo	-11.1774
▁aprecio	-11.1774
▁cierre	-11.1774
▁cinturón	-11.1774
▁crédito	-11.1774
▁delicioso	-11.1774
▁efectivo	-11.1774
▁laptop	-11.1774
▁lástima	-11.1774
▁ocurrido	-11.1774
▁professor	-11.1774
▁provide	-11.1774
▁rush	-11.1774
▁picasso	-11.1774
▁ruso	-11.1774
▁méxico	-11.1774
▁sensible	-11.1774
▁battle	-11.1774
▁batalla	-11.1774
▁invitation	-11.1774
▁invitación	-11.1774
▁entendido	-11.1774
▁atrasado	-11.1774
▁decepcionado	-11.1775
▁moda	-11.1775
▁gerente	-11.1775
▁guapo	-11.1775
▁tocó	-11.1775
▁rota	-11.1775
▁salvó	-11.1775
▁salario	-11.1776
▁sonreír	-11.1776
▁conseguí	-11.1776
▁adiós	-11.1777
▁vieron	-11.1777
▁impressed	-11.1777
▁capaces	-11.1778
▁cercana	-11.1779
▁hire	-11.1781
▁ruined	-11.1782
▁considerado	-11.1784
▁emocionado	-11.1785
▁pushed	-11.1788
▁acting	-11.1789
▁imagen	-11.1791
▁diste	-11.1793
▁compre	-11.1795
▁ordenó	-11.18
ábamos	-11.1807
▁drives	-11.1814
▁meter	-11.1827
▁signed	-11.1828
▁text	-11.1832
▁visiting	-11.1866
▁estuvieron	-11.1873
▁chat	-11.1873
▁compañeros	-11.1887
▁maravillosa	-11.1891
▁continuar	-11.1898
▁plantas	-11.1919
▁daba	-11.1926
▁arena	-11.194
▁casas	-11.1961
▁argument	-11.1966
▁force	-11.1976
▁dulces	-11.199
▁predict	-11.199
vo	-11.1992
▁volví	-11.1998
▁ayudé	-11.2004
▁rode	-11.2009
▁detener	-11.2014
▁aspecto	-11.2021
▁extranjera	-11.2025
▁effort	-11.2026
▁chiste	-11.2026
▁pi	-11.2033
▁hopes	-11.2038
▁fines	-11.2039
▁alguno	-11.2043
▁adapt	-11.2044
▁actu	-11.2066
▁contest	-11.2102
law	-11.2111
estoy	-11.2117
▁guardar	-11.2131
▁sabían	-11.2135
▁niñas	-11.2135
sí	-11.2136
▁renunciar	-11.2141
▁improve	-11.2143
▁crash	-11.2146
▁gain	-11.2147
▁greet	-11.2147
▁lift	-11.215
▁lean	-11.2151
▁largas	-11.2153
▁defend	-11.2157
▁audience	-11.2158
▁caluroso	-11.2158
▁despertó	-11.2158
▁economy	-11.2158
▁economía	-11.2158
▁enemies	-11.2158
▁genio	-11.2158
▁insane	-11.2158
▁itself	-11.2158
▁mochila	-11.2158
▁opina	-11.2158
▁razones	-11.2158
▁strict	-11.2158
▁thirteen	-11.2158
▁íbamos	-11.2158
▁colgó	-11.2158
▁complicated	-11.2158
▁empecé	-11.2158
▁acusó	-11.2158
▁cima	-11.2158
▁solicitud	-11.2158
▁coward	-11.2158
▁mintió	-11.2158
▁hawaii	-11.2158
▁rieron	-11.2159
▁diary	-11.2159
▁importancia	-11.2159
▁molesto	-11.2159
▁ayúdame	-11.2159
▁kilómetros	-11.2159
▁recientemente	-11.2159
▁entré	-11.216
▁baffled	-11.216
▁nation	-11.216
▁frightened	-11.2161
▁science	-11.2161
▁election	-11.2161
▁anger	-11.2162
▁vienen	-11.2162
▁concentrate	-11.2163
▁shake	-11.2163
▁punished	-11.2163
▁cheated	-11.2165
▁sentada	-11.2167
▁intentado	-11.2169
▁hablemos	-11.217
▁deeply	-11.217
▁capable	-11.2171
▁jam	-11.2172
▁haremos	-11.2172
▁dentista	-11.2176
▁encendió	-11.2177
▁spite	-11.2178
▁supo	-11.2178
▁trataba	-11.2179
▁saca	-11.218
teniendo	-11.2184
▁cansados	-11.2189
▁llegaría	-11.2189
▁trate	-11.219
▁expresar	-11.2192
▁kissing	-11.2196
▁esperaré	-11.2203
▁musical	-11.2203
▁dejaría	-11.2207
▁venden	-11.2208
▁devolver	-11.221
▁voted	-11.2214
▁alumnos	-11.2219
imos	-11.2219
▁miré	-11.2229
▁burl	-11.2239
ical	-11.2242
▁wondering	-11.225
▁usado	-11.2254
▁quedando	-11.2254
▁acuerdas	-11.2255
▁viaj	-11.2266
ion	-11.2305
▁vienes	-11.2308
▁lava	-11.2316
▁comparti	-11.232
▁leader	-11.233
▁esfuerzos	-11.2334
▁po	-11.2335
ones	-11.2338
▁pill	-11.2353
▁march	-11.2362
▁vase	-11.2366
▁pe	-11.2368
▁mantiene	-11.2373
éramos	-11.2383
▁muertos	-11.2387
▁pañuelo	-11.2415
▁vacío	-11.2416
▁apariencia	-11.2419
▁impaciente	-11.2419
▁field	-11.2422
▁cerdo	-11.2423
▁hambriento	-11.2424
▁talento	-11.2424
▁pidie	-11.2427
▁miembro	-11.2427
▁soldier	-11.2428
▁regla	-11.2428
▁soldado	-11.2429
▁empleado	-11.2434
▁seguí	-11.2434
▁lesson	-11.244
▁orders	-11.2447
tienen	-11.2467
▁mistaken	-11.2486
ried	-11.2488
▁nombres	-11.249
ur	-11.2498
ponía	-11.2508
▁charla	-11.2512
▁understands	-11.2515
▁trabajado	-11.2532
▁talent	-11.2536
▁walks	-11.254
▁advance	-11.2543
▁cover	-11.255
▁receive	-11.2551
▁lleg	-11.2552
▁sándwich	-11.2552
ante	-11.2555
▁nevar	-11.2558
▁scene	-11.2558
▁accompan	-11.2558
▁baloncesto	-11.2558
▁bienvenida	-11.2558
▁compromiso	-11.2558
▁current	-11.2558
▁desierto	-11.2558
▁grosero	-11.2558
▁piscina	-11.2558
▁ridiculous	-11.2558
▁tránsito	-11.2558
▁bound	-11.2558
▁conduciendo	-11.2558
▁desapareció	-11.2558
▁june	-11.2558
▁switch	-11.2558
▁turkey	-11.2558
▁escucho	-11.2558
▁juez	-11.2558
▁mercado	-11.2558
▁notebook	-11.2558
▁okay	-11.2558
▁pepper	-11.2558
▁ugly	-11.2558
▁reuniones	-11.2558
▁formulario	-11.2558
▁gorda	-11.2558
▁campana	-11.2558
▁excusa	-11.2558
▁fecha	-11.2559
▁violin	-11.2559
▁vendré	-11.2559
▁adoro	-11.2559
▁noisy	-11.2559
▁candy	-11.2559
▁villa	-11.256
▁celular	-11.256
▁móvil	-11.256
▁apply	-11.256
▁exciting	-11.256
▁aumento	-11.256
▁arrestado	-11.256
▁seguida	-11.2561
▁fracaso	-11.2561
▁coser	-11.2561
▁outfit	-11.2561
▁elected	-11.2561
▁kindness	-11.2561
▁annoying	-11.2561
▁cuyo	-11.2562
▁formas	-11.2562
▁obviously	-11.2564
▁confundido	-11.2565
▁levantado	-11.2565
▁north	-11.2567
▁usualmente	-11.2567
▁successful	-11.2568
▁inclinó	-11.2569
▁visitado	-11.2572
▁bebo	-11.2573
▁vain	-11.2573
▁escena	-11.2573
▁obedecer	-11.2576
▁persuaded	-11.2579
▁ringing	-11.258
▁hall	-11.2592
▁diera	-11.2599
▁aparte	-11.2602
ation	-11.2615
▁brazos	-11.2623
▁produce	-11.2625
▁guarda	-11.2627
▁sleeps	-11.2637
za	-11.2645
▁inform	-11.2647
▁despedir	-11.265
▁trenes	-11.2656
▁tap	-11.2663
ma	-11.2664
▁teme	-11.2684
▁cancel	-11.2692
▁compartir	-11.2696
▁ibas	-11.2697
▁existe	-11.2703
▁bala	-11.2736
▁poems	-11.2748
▁plants	-11.275
▁presentar	-11.2757
ive	-11.2778
▁inteligentes	-11.278
▁mejorar	-11.2781
ty	-11.2784
▁wins	-11.28
▁acostumbrar	-11.2825
▁document	-11.2831
▁cheek	-11.2839
▁empeza	-11.2839
▁francesa	-11.284
▁member	-11.2843
▁asuntos	-11.2868
▁trabaj	-11.2878
▁suceder	-11.288
▁equal	-11.2895
▁saltar	-11.2897
quieren	-11.2926
▁sirve	-11.2941
▁tied	-11.2942
▁altos	-11.295
▁costa	-11.2951
▁señal	-11.2954
▁empez	-11.2954
ina	-11.2956
▁interrupt	-11.2959
▁divorce	-11.296
▁survive	-11.296
▁prevent	-11.2963
▁gather	-11.2966
▁carga	-11.2968
ista	-11.297
▁obvious	-11.2971
▁mantén	-11.2975
▁anxious	-11.2975
▁basket	-11.2975
▁cuarenta	-11.2975
▁envelope	-11.2975
▁garganta	-11.2975
▁grapes	-11.2975
▁kilometers	-11.2975
▁nature	-11.2975
▁tamaño	-11.2975
▁throat	-11.2975
▁calvo	-11.2975
▁enojada	-11.2975
▁naturaleza	-11.2975
▁acostumbrada	-11.2976
▁fought	-11.2976
▁cubierto	-11.2976
▁seriamente	-11.2977
▁comprendo	-11.2977
▁salieron	-11.2977
▁vengo	-11.2977
▁quejando	-11.2977
▁firme	-11.2977
▁volando	-11.2978
▁harta	-11.2979
▁déjalo	-11.2979
▁peleando	-11.2979
▁escondido	-11.2981
▁spilled	-11.2982
▁vago	-11.2984
▁cocinando	-11.2986
▁gained	-11.2988
▁regular	-11.2989
▁juzgar	-11.2989
▁parecer	-11.299
ces	-11.2995
▁staring	-11.3
▁casarte	-11.3001
▁growing	-11.3002
▁closer	-11.3003
▁llamaste	-11.3006
▁notas	-11.3008
▁contain	-11.3009
▁murdered	-11.3011
▁comprarlo	-11.3033
▁miraba	-11.3034
▁ayudaría	-11.3034
▁llamaba	-11.3035
▁oírte	-11.3041
▁quieto	-11.3046
▁perfecta	-11.3054
▁sp	-11.3068
▁dust	-11.3075
▁queja	-11.3089
▁cerrados	-11.3098
▁convertir	-11.3106
▁helps	-11.3108
▁seguía	-11.3112
▁knowing	-11.3119
▁promises	-11.3128
▁base	-11.3143
probó	-11.3145
adas	-11.3154
▁comas	-11.3164
▁arregl	-11.3173
▁poemas	-11.318
ito	-11.3185
▁fotografías	-11.319
▁olvida	-11.3192
▁tomará	-11.3197
ventó	-11.3203
▁remembered	-11.3209
▁strangers	-11.3218
dos	-11.323
▁opera	-11.3253
▁firmar	-11.3263
▁desnudo	-11.3267
▁negra	-11.3267
▁alternativa	-11.3269
▁fila	-11.327
▁medida	-11.3271
▁sales	-11.3272
▁antigua	-11.3272
biste	-11.3273
chi	-11.3274
▁ciudadano	-11.3277
▁científico	-11.3277
▁leo	-11.3278
▁compañero	-11.3278
▁hoja	-11.3279
▁regard	-11.3281
▁experto	-11.3281
▁creen	-11.3287
▁action	-11.3311
▁flu	-11.3325
▁contratar	-11.3326
▁incident	-11.3353
▁asegúr	-11.3357
capaz	-11.3362
looking	-11.3362
▁apunt	-11.3368
ous	-11.337
▁muere	-11.3377
▁model	-11.3385
▁pressure	-11.3393
▁manage	-11.3396
▁crecí	-11.3396
▁nivel	-11.3402
▁witness	-11.3403
▁asia	-11.3403
ci	-11.3407
▁amar	-11.3408
▁achieve	-11.341
▁actress	-11.341
▁dessert	-11.341
▁efecto	-11.341
▁embargo	-11.341
▁enciende	-11.341
▁evidence	-11.341
▁helicopter	-11.341
▁inocencia	-11.341
▁percent	-11.341
▁strength	-11.341
▁adjust	-11.341
▁bullet	-11.341
▁crisis	-11.341
▁emocionante	-11.341
▁obtuvo	-11.341
▁thick	-11.341
▁hierro	-11.341
▁average	-11.341
▁instituto	-11.341
▁fijamente	-11.341
▁screen	-11.341
▁occurred	-11.341
▁nevando	-11.341
▁perdiendo	-11.341
▁ratón	-11.341
▁habitual	-11.341
▁comimos	-11.341
▁electrónico	-11.341
▁conference	-11.3411
▁nap	-11.3411
▁soporto	-11.3411
▁adelantado	-11.3411
▁brillante	-11.3411
▁olor	-11.3411
▁raw	-11.3412
▁siéntate	-11.3412
▁patio	-11.3412
▁major	-11.3412
▁reply	-11.3412
▁deshacer	-11.3412
▁pesada	-11.3412
▁adorable	-11.3412
▁forgetful	-11.3412
▁cuente	-11.3413
▁órdenes	-11.3413
▁costará	-11.3413
▁muchísimo	-11.3415
▁command	-11.3416
▁generalmente	-11.3416
▁newspapers	-11.3416
▁torre	-11.3416
▁pants	-11.3417
▁construyó	-11.3417
▁removed	-11.3418
ue	-11.3418
▁jeans	-11.3419
▁causó	-11.342
▁mantente	-11.3421
▁llamando	-11.3422
▁recuerdas	-11.3422
▁pica	-11.3422
▁concerned	-11.3423
llón	-11.3427
▁azules	-11.3431
▁sed	-11.3437
▁visitors	-11.3437
▁importantes	-11.3438
▁llamarme	-11.3442
▁alma	-11.3443
▁experimento	-11.3445
▁encontraron	-11.3445
▁postre	-11.3446
▁bebido	-11.3452
▁llevaré	-11.3454
▁utilizar	-11.3456
▁león	-11.3459
si	-11.3462
▁fork	-11.3469
▁legal	-11.3479
▁planeta	-11.3479
▁danced	-11.3482
▁touched	-11.3487
▁cleaned	-11.3501
▁watches	-11.3513
▁twins	-11.3514
▁however	-11.3516
▁suma	-11.3517
▁insult	-11.352
▁vend	-11.3525
▁lately	-11.3532
▁earns	-11.3538
▁indica	-11.3538
ja	-11.3548
dicó	-11.355
age	-11.3554
▁primos	-11.3576
▁creas	-11.3594
▁iban	-11.3598
arme	-11.3607
▁oblig	-11.361
▁controlar	-11.3619
▁cousins	-11.3628
▁dirigi	-11.3631
▁resolvi	-11.3644
▁mías	-11.3658
▁closet	-11.3702
▁shoot	-11.3708
▁concern	-11.3709
▁service	-11.3721
das	-11.3721
▁asesinado	-11.3724
▁testigo	-11.3725
▁lion	-11.3726
▁pierde	-11.3726
▁firm	-11.373
▁juguete	-11.3731
▁corte	-11.3733
▁cerrado	-11.3734
▁shoe	-11.3735
▁placer	-11.374
▁rojas	-11.3743
▁limpi	-11.3743
▁pasto	-11.3749
▁pasan	-11.3754
▁alimenta	-11.3754
▁pr	-11.3759
▁reasons	-11.376
▁dudas	-11.3773
▁historias	-11.3784
▁earn	-11.3786
sumo	-11.3786
vis	-11.3798
▁terror	-11.3804
▁aim	-11.3813
▁ricos	-11.3814
▁facts	-11.3829
▁directo	-11.3837
▁desert	-11.3843
necesitas	-11.3844
▁supe	-11.3845
▁disappoint	-11.3852
▁spread	-11.3853
▁speed	-11.3854
▁cell	-11.3854
▁bowl	-11.3854
▁import	-11.3857
▁venid	-11.3858
▁física	-11.3861
▁oficial	-11.3861
▁salad	-11.3862
▁attract	-11.3864
▁acceso	-11.3864
▁ansioso	-11.3864
▁apellido	-11.3864
▁cajón	-11.3864
▁contrario	-11.3864
▁diamond	-11.3864
▁ejército	-11.3864
▁explosion	-11.3864
▁gloves	-11.3864
▁ladder	-11.3864
▁levanto	-11.3864
▁líder	-11.3864
▁method	-11.3864
▁nonsense	-11.3864
▁politics	-11.3864
▁register	-11.3864
▁reputation	-11.3864
▁shakespeare	-11.3864
▁whale	-11.3864
▁whistle	-11.3864
▁estudió	-11.3864
▁furioso	-11.3864
▁deposit	-11.3864
▁guantes	-11.3864
▁adecuado	-11.3864
▁refrigerador	-11.3864
▁privado	-11.3865
▁stake	-11.3865
▁priest	-11.3865
▁bribe	-11.3865
▁poker	-11.3865
▁electricity	-11.3865
▁lightning	-11.3865
▁sunny	-11.3865
▁discussion	-11.3865
▁enamorada	-11.3865
▁suave	-11.3865
hace	-11.3865
▁preferida	-11.3865
▁valla	-11.3865
▁export	-11.3865
▁obsequio	-11.3865
▁impression	-11.3865
▁construir	-11.3865
▁mandó	-11.3865
▁punta	-11.3865
▁nara	-11.3865
▁condujo	-11.3865
▁cuidadosamente	-11.3866
▁elecciones	-11.3866
▁obviamente	-11.3866
▁puppy	-11.3866
▁tiende	-11.3866
▁averg	-11.3866
▁copa	-11.3866
▁preocuparse	-11.3866
▁prohibited	-11.3867
▁escapó	-11.3867
▁drawer	-11.3867
▁cage	-11.3867
▁lea	-11.3867
▁creció	-11.3869
▁mostraré	-11.3869
▁perdone	-11.3869
▁barking	-11.387
▁destroyed	-11.387
▁terminé	-11.3871
▁self	-11.3871
▁elige	-11.3872
▁granted	-11.3872
▁dificultades	-11.3873
▁delayed	-11.3874
▁alice	-11.3875
▁attractive	-11.3875
▁wounded	-11.3876
▁llegues	-11.3878
▁talented	-11.3878
▁canceled	-11.388
tuve	-11.3881
▁uvas	-11.3881
▁crossing	-11.3882
▁hola	-11.3882
po	-11.3893
▁modelo	-11.3894
▁hacerle	-11.3901
▁volvería	-11.3903
▁peanuts	-11.3905
▁pasaron	-11.3908
▁orejas	-11.3911
▁charged	-11.3913
▁degrees	-11.3917
▁martes	-11.3924
▁ayudado	-11.3928
▁deny	-11.393
▁estaremos	-11.3933
ig	-11.3946
▁llevara	-11.3954
▁snowed	-11.3963
tar	-11.3972
ran	-11.3974
▁r	-11.3978
▁ciudades	-11.3985
▁humanos	-11.399
▁documentos	-11.3994
▁cigarettes	-11.4036
yon	-11.4036
▁seats	-11.4037
▁perdonar	-11.4038
gue	-11.4062
▁cares	-11.4069
▁closes	-11.4082
▁presents	-11.409
▁entregar	-11.4091
▁vano	-11.4092
▁funcionar	-11.4102
▁producto	-11.412
▁participar	-11.4121
▁trabajan	-11.4132
▁upon	-11.4153
habla	-11.4158
▁loan	-11.4164
▁ocupa	-11.4165
▁estén	-11.4173
▁bromas	-11.4176
▁aprende	-11.4179
▁actual	-11.4195
▁handkerchief	-11.4197
▁file	-11.4199
▁cosecha	-11.4201
▁regrese	-11.4202
▁plate	-11.4204
▁direction	-11.4205
▁debt	-11.4206
▁amarilla	-11.4207
▁employee	-11.421
▁prisoner	-11.4211
▁documento	-11.4218
▁aquello	-11.4224
▁atrapar	-11.4226
▁planet	-11.4231
▁sentar	-11.425
▁juga	-11.4252
▁pása	-11.4264
▁maneja	-11.4273
yes	-11.428
▁sings	-11.4283
▁ocurre	-11.4284
▁ahorrar	-11.4285
▁planta	-11.4299
▁jugaba	-11.4301
▁jobs	-11.4304
▁poet	-11.4308
▁admire	-11.4321
▁harás	-11.4324
▁acostar	-11.4325
▁flat	-11.4334
▁disfraz	-11.434
▁brit	-11.4341
▁access	-11.4341
▁ambulance	-11.4341
▁ambulancia	-11.4341
▁concurso	-11.4341
▁conocimos	-11.4341
▁enfadó	-11.4341
▁ensalada	-11.4341
▁false	-11.4341
▁families	-11.4341
▁impatient	-11.4341
▁inevitable	-11.4341
▁mordió	-11.4341
▁método	-11.4341
▁petróleo	-11.4341
▁pregnant	-11.4341
▁práctica	-11.4341
▁rifle	-11.4341
▁tuesday	-11.4341
▁typhoon	-11.4341
▁uñas	-11.4341
▁vecindario	-11.4341
▁vuelvo	-11.4341
▁absence	-11.4341
▁actriz	-11.4341
▁asesino	-11.4341
▁task	-11.4341
▁tesoro	-11.4341
▁temper	-11.4341
▁hidden	-11.4341
▁tower	-11.4341
▁ease	-11.4341
▁perdimos	-11.4341
▁muriendo	-11.4341
▁obtener	-11.4341
▁begun	-11.4341
▁package	-11.4341
▁involucrado	-11.4341
▁pídele	-11.4341
▁aliento	-11.4341
▁calidad	-11.4341
▁pago	-11.4341
▁complicado	-11.4341
▁lavadora	-11.4341
▁frecuentemente	-11.4341
▁electricidad	-11.4341
▁apparently	-11.4341
▁perdieron	-11.4341
▁burst	-11.4341
▁almohada	-11.4341
▁muéstrame	-11.4342
▁embarazada	-11.4342
▁muerta	-11.4343
▁estalló	-11.4343
▁bordo	-11.4343
▁botas	-11.4344
▁posición	-11.4344
▁apretó	-11.4345
▁sentarse	-11.4346
▁smarter	-11.4346
▁comiste	-11.4347
▁murderer	-11.4347
▁sewing	-11.4347
▁personalmente	-11.4348
▁olvidaré	-11.4349
▁echado	-11.4349
▁issue	-11.4349
▁reasonable	-11.435
▁baked	-11.435
▁confessed	-11.435
ized	-11.4352
claró	-11.4352
▁served	-11.4352
▁preparing	-11.4354
▁honesty	-11.4354
▁siesta	-11.4356
▁enseñarme	-11.4356
▁quietly	-11.4358
▁traduj	-11.4358
▁coches	-11.4361
▁cero	-11.4363
▁classmates	-11.4364
▁adopted	-11.4366
▁planted	-11.437
▁incidente	-11.4371
▁options	-11.4377
▁encontrarás	-11.4382
▁colores	-11.4384
▁sabés	-11.4388
▁llevará	-11.4388
▁scare	-11.4394
▁vendi	-11.4396
▁causes	-11.4407
▁grados	-11.441
▁repar	-11.4413
▁seca	-11.4426
▁llegara	-11.4426
▁meters	-11.4432
▁dreaming	-11.4438
▁juegos	-11.4441
▁doubts	-11.4451
▁comentarios	-11.4455
▁coins	-11.4456
▁wishes	-11.4456
▁alérgic	-11.4461
▁weapons	-11.4462
▁super	-11.4466
▁presentó	-11.4471
▁w	-11.4473
▁mires	-11.4477
▁aula	-11.4498
▁pasara	-11.45
ng	-11.4501
▁particip	-11.4503
▁total	-11.4516
▁tantos	-11.4517
▁deer	-11.4545
ug	-11.4548
▁bat	-11.4555
▁ga	-11.4563
▁roses	-11.4569
▁reporte	-11.4573
▁busqué	-11.4581
▁metros	-11.4589
▁quede	-11.4591
▁resulta	-11.4595
▁pasear	-11.4611
▁alcanz	-11.4613
rme	-11.4617
▁cargar	-11.463
▁páginas	-11.4647
▁amenaza	-11.465
ated	-11.4652
tener	-11.4653
▁che	-11.4672
▁wound	-11.4687
▁presente	-11.4693
▁sorprende	-11.4695
▁ríe	-11.4695
▁adult	-11.4697
▁detective	-11.4697
▁dueño	-11.47
▁photograph	-11.47
▁disponible	-11.4703
▁parecido	-11.4703
▁medicamento	-11.4704
▁gallina	-11.4704
▁sordo	-11.4704
▁mejilla	-11.4704
▁deuda	-11.4705
▁cabra	-11.4705
▁dama	-11.4707
▁político	-11.4707
▁callado	-11.472
▁humano	-11.4729
▁trains	-11.473
▁depend	-11.4746
▁africa	-11.4746
▁canadians	-11.4753
▁resist	-11.4756
▁vives	-11.477
▁americano	-11.4784
year	-11.4796
▁shame	-11.4796
cu	-11.4798
▁miente	-11.48
▁vea	-11.4809
▁demanda	-11.481
▁sentados	-11.4816
▁mostrar	-11.4822
▁double	-11.4823
▁flood	-11.4827
▁spell	-11.483
▁nuclear	-11.4833
ísimo	-11.4836
▁fox	-11.4837
ncia	-11.4839
▁materna	-11.4839
▁pour	-11.4839
▁capacidad	-11.484
▁obvio	-11.484
▁burglar	-11.484
▁agradezco	-11.4841
▁amabilidad	-11.4841
▁april	-11.4841
▁arriving	-11.4841
▁atentamente	-11.4841
▁baggage	-11.4841
▁california	-11.4841
▁ceiling	-11.4841
▁committee	-11.4841
▁césped	-11.4841
▁dieciocho	-11.4841
▁embajada	-11.4841
▁embassy	-11.4841
▁engaged	-11.4841
▁espectáculo	-11.4841
▁evidencia	-11.4841
▁explosión	-11.4841
▁falso	-11.4841
▁francisco	-11.4841
▁greek	-11.4841
▁harsh	-11.4841
▁hawái	-11.4841
▁heavily	-11.4841
▁impresionado	-11.4841
▁infancia	-11.4841
▁insurance	-11.4841
▁malentendido	-11.4841
▁nowadays	-11.4841
▁ocasión	-11.4841
▁opciones	-11.4841
▁outstanding	-11.4841
▁pimienta	-11.4841
▁political	-11.4841
▁presión	-11.4841
▁reputación	-11.4841
▁responsabilidad	-11.4841
▁rostro	-11.4841
▁sensitive	-11.4841
▁sociedad	-11.4841
▁society	-11.4841
▁sunglasses	-11.4841
▁terrific	-11.4841
▁voluntad	-11.4841
▁además	-11.4841
▁stage	-11.4841
▁fridge	-11.4841
▁jaula	-11.4841
▁jogging	-11.4841
▁importance	-11.4841
▁lucía	-11.4841
▁blackboard	-11.4841
▁sabia	-11.4841
▁boots	-11.4841
▁investigación	-11.4841
▁mentido	-11.4841
▁juan	-11.4841
▁imagination	-11.4841
▁claus	-11.4841
▁carpet	-11.4841
▁imaginación	-11.4841
▁melodía	-11.4841
▁estanque	-11.4842
▁autoridad	-11.4842
▁bailando	-11.4842
▁properly	-11.4842
▁stove	-11.4842
▁babbling	-11.4842
▁bigge	-11.4842
▁continúa	-11.4842
▁distinguish	-11.4842
▁frankly	-11.4842
▁objeto	-11.4842
▁picante	-11.4842
▁tinta	-11.4842
▁stock	-11.4843
▁quality	-11.4843
▁elegido	-11.4843
▁interesada	-11.4843
▁bitter	-11.4843
▁fluently	-11.4844
▁respirar	-11.4844
▁restless	-11.4844
▁valuable	-11.4844
▁tejado	-11.4845
▁cuéntame	-11.4845
▁taxes	-11.4845
▁humo	-11.4845
▁matado	-11.4845
▁abril	-11.4847
▁caminaba	-11.4847
▁ignoró	-11.4847
▁lección	-11.4848
▁collecting	-11.4848
▁treasure	-11.4849
▁propios	-11.4849
▁sour	-11.485
▁sweating	-11.485
▁shouted	-11.4851
▁shorter	-11.4853
▁esquí	-11.4853
▁empezamos	-11.4853
▁moral	-11.4853
▁separated	-11.4854
▁personally	-11.4854
▁insisted	-11.4855
▁j	-11.4859
▁oldest	-11.486
▁hired	-11.4862
▁entraron	-11.4863
▁pobres	-11.4863
▁podré	-11.4863
▁height	-11.4864
▁intended	-11.4866
▁casarme	-11.4867
lu	-11.4867
▁korean	-11.4868
▁magic	-11.487
▁fan	-11.4873
estabas	-11.4874
▁rented	-11.4874
▁nerviosa	-11.4877
▁volumen	-11.4879
▁closely	-11.4881
▁places	-11.4881
▁mandar	-11.4882
▁pasaba	-11.4883
▁contarte	-11.4885
▁mancha	-11.4891
▁forty	-11.4891
▁busca	-11.4892
▁imagined	-11.4893
▁fiar	-11.4893
▁existen	-11.4894
▁solar	-11.4895
▁periódicos	-11.4897
▁grades	-11.4899
▁turistas	-11.4913
▁bananas	-11.492
▁encargar	-11.4921
▁reunir	-11.4925
▁tales	-11.4927
▁cazar	-11.4928
▁dejarlo	-11.4929
ller	-11.4932
▁nowhere	-11.4937
▁derechos	-11.4937
▁conté	-11.4938
▁alimentos	-11.4942
▁meta	-11.4943
▁vacas	-11.4943
▁normas	-11.4948
▁ink	-11.4951
pero	-11.4952
▁amas	-11.4952
tado	-11.4955
▁monedas	-11.4961
ud	-11.4979
ear	-11.499
▁veas	-11.4996
side	-11.5011
sal	-11.5015
▁efforts	-11.5017
▁rosas	-11.5031
▁aside	-11.5058
▁extrañar	-11.5059
▁ignorar	-11.5105
one	-11.5108
áramos	-11.5116
▁prest	-11.5121
▁claims	-11.5129
▁l	-11.5151
sh	-11.5152
▁sábados	-11.5164
▁consult	-11.5171
▁debate	-11.5175
▁calles	-11.5176
▁knee	-11.5177
▁unusual	-11.5178
▁prefiere	-11.5195
▁tune	-11.5199
▁ruin	-11.5202
▁behave	-11.521
▁demand	-11.5215
▁hu	-11.5218
ida	-11.5219
▁desayuna	-11.522
▁amarillo	-11.5224
▁suggestion	-11.5224
▁appearance	-11.5226
▁zorro	-11.5227
▁flag	-11.5227
j	-11.523
▁pida	-11.5231
▁piloto	-11.5232
▁tourist	-11.5234
▁weapon	-11.5234
▁acuerda	-11.5235
▁vuestros	-11.5241
cient	-11.5242
▁squeeze	-11.5246
endo	-11.5249
▁manda	-11.5254
▁necesite	-11.526
su	-11.5264
▁players	-11.5266
▁éstas	-11.527
▁pop	-11.5272
▁scar	-11.5276
▁soñ	-11.5303
▁protest	-11.5303
▁cómodo	-11.5303
▁oppose	-11.5305
▁faith	-11.5305
▁rate	-11.5309
▁corrí	-11.531
▁llegas	-11.5316
▁extraños	-11.5317
▁fuese	-11.5321
recuerdas	-11.5322
▁volume	-11.5327
▁decent	-11.5336
▁tipos	-11.5342
▁cough	-11.5344
▁fashion	-11.5351
▁poison	-11.5353
▁frame	-11.5354
▁oso	-11.5355
▁sweat	-11.5355
▁blow	-11.5357
▁recogi	-11.5357
▁pack	-11.5357
▁lastimar	-11.5362
▁unexpected	-11.5362
▁servir	-11.5362
▁hug	-11.5363
▁lujo	-11.5364
▁occasion	-11.5367
▁court	-11.5367
▁adicto	-11.5367
▁apoyó	-11.5367
▁comité	-11.5367
▁confesó	-11.5367
▁coraje	-11.5367
▁cuaderno	-11.5367
▁deliciosa	-11.5367
▁encender	-11.5367
▁engañó	-11.5367
▁entrance	-11.5367
▁estudié	-11.5367
▁festival	-11.5367
▁hoax	-11.5367
▁instructions	-11.5367
▁izquierdo	-11.5367
▁juicio	-11.5367
▁ketchup	-11.5367
▁knowledge	-11.5367
▁maestra	-11.5367
▁martillo	-11.5367
▁ocurra	-11.5367
▁paliza	-11.5367
▁pizarra	-11.5367
▁pleasure	-11.5367
▁retrasó	-11.5367
▁rough	-11.5367
▁secundaria	-11.5367
▁sombra	-11.5367
▁target	-11.5367
▁temporada	-11.5367
▁tifón	-11.5367
▁unfair	-11.5367
▁universe	-11.5367
▁universo	-11.5367
▁upstairs	-11.5367
▁vestida	-11.5367
▁ausencia	-11.5367
▁conceited	-11.5367
▁drew	-11.5367
▁motorcycle	-11.5367
▁pagué	-11.5367
▁almorzando	-11.5367
▁descubierto	-11.5367
▁sheep	-11.5367
▁egoísta	-11.5367
▁mystery	-11.5367
▁soft	-11.5367
▁selfish	-11.5367
▁coincidence	-11.5367
▁competition	-11.5367
▁replace	-11.5367
▁cities	-11.5367
▁habitaciones	-11.5367
▁scenery	-11.5367
▁muero	-11.5367
▁silver	-11.5367
▁rio	-11.5367
▁educado	-11.5367
▁cigarro	-11.5367
▁presence	-11.5368
▁permitido	-11.5368
▁enséñame	-11.5368
▁scratch	-11.5368
▁advirtió	-11.5368
▁comparto	-11.5368
▁exhausto	-11.5368
▁honestidad	-11.5368
▁decidieron	-11.5368
▁row	-11.5368
▁hundió	-11.5368
▁level	-11.5368
▁arrepiento	-11.5369
▁salgo	-11.5369
▁professional	-11.5369
▁caminó	-11.5369
▁muro	-11.5369
▁pruebas	-11.5369
▁fortunately	-11.5369
▁entregó	-11.537
▁square	-11.537
▁actualmente	-11.537
▁mat	-11.537
▁cheaper	-11.537
▁object	-11.537
▁sonriendo	-11.537
▁obligado	-11.537
▁soul	-11.5371
▁instrucciones	-11.5371
▁progreso	-11.5371
▁metido	-11.5371
▁arrojó	-11.5372
▁barba	-11.5372
▁suitable	-11.5373
▁dating	-11.5373
▁product	-11.5375
▁treaty	-11.5375
▁saqué	-11.5376
▁oeste	-11.5376
▁mostrarte	-11.5377
▁bowed	-11.5377
▁rescued	-11.5377
▁fairly	-11.5378
▁addict	-11.538
▁disparar	-11.5382
▁framed	-11.5382
▁despertador	-11.5382
▁marchó	-11.5386
▁sigo	-11.5394
▁disfrutar	-11.5394
▁reina	-11.5395
▁manners	-11.54
▁income	-11.54
▁quejó	-11.5402
▁solucionar	-11.5403
▁quemó	-11.5405
▁ayudando	-11.5406
▁herramientas	-11.5407
▁pagaré	-11.5408
▁serás	-11.541
nzó	-11.5414
▁applie	-11.5418
▁sellos	-11.5426
▁chosen	-11.5426
▁pesa	-11.543
▁posee	-11.5433
▁rely	-11.5436
how	-11.5437
▁leerlo	-11.5448
▁acción	-11.545
▁gemelos	-11.5451
▁preciosa	-11.5455
▁cows	-11.5458
cated	-11.546
▁terms	-11.5461
▁serpientes	-11.5472
▁snakes	-11.5472
▁comía	-11.5474
▁alcanza	-11.5475
▁fate	-11.549
▁lit	-11.5491
▁parking	-11.5495
▁talla	-11.5498
▁grown	-11.5507
▁permanecer	-11.5515
▁sonando	-11.5526
▁americanos	-11.5528
▁científicos	-11.5531
▁lucha	-11.5538
pidieron	-11.554
▁ca	-11.5558
aría	-11.5562
▁lados	-11.557
ros	-11.5573
ance	-11.5591
▁canal	-11.5595
ho	-11.5612
▁cor	-11.5624
▁gustado	-11.5631
elo	-11.5657
king	-11.5658
▁cu	-11.566
▁considera	-11.5665
▁fueras	-11.5678
▁mata	-11.5691
darnos	-11.5708
esa	-11.5716
▁tru	-11.5743
▁luchar	-11.5744
▁piense	-11.5747
▁recibi	-11.5751
▁coin	-11.5759
▁fi	-11.576
cantaría	-11.5761
▁pilot	-11.5768
illa	-11.5774
▁colors	-11.5778
▁helicóptero	-11.5779
▁religion	-11.5779
▁cobarde	-11.5782
▁pluma	-11.5782
▁bandera	-11.5782
▁custom	-11.5785
▁dim	-11.5786
▁viera	-11.5787
▁curtain	-11.5787
▁rodilla	-11.5788
▁encuentre	-11.5788
▁cigarrillo	-11.5789
▁moneda	-11.579
▁comentario	-11.579
▁stamp	-11.5791
▁oscura	-11.5791
▁pide	-11.5791
▁lento	-11.5793
▁twin	-11.5799
▁design	-11.5806
▁sucio	-11.5806
▁papers	-11.5811
oso	-11.5826
▁budge	-11.5831
▁edi	-11.5838
▁ke	-11.5854
▁revis	-11.5855
arte	-11.5856
ch	-11.5856
▁arruin	-11.5864
▁agradeci	-11.5869
ellos	-11.5869
mail	-11.5872
▁botellas	-11.5873
▁cocin	-11.5881
▁odiaba	-11.5882
▁busc	-11.5892
▁apunta	-11.5892
▁bottles	-11.5895
▁pray	-11.5897
▁increase	-11.5906
▁approve	-11.5907
▁malos	-11.5908
▁profesional	-11.5915
▁angel	-11.5916
▁triunfar	-11.5917
▁brand	-11.5919
▁prince	-11.5921
▁central	-11.5922
▁resultar	-11.5922
▁limít	-11.5922
▁automobile	-11.5922
▁biblia	-11.5922
▁cottage	-11.5922
▁despedida	-11.5922
▁diecisiete	-11.5922
▁funcionó	-11.5922
▁gasolina	-11.5922
▁hockey	-11.5922
▁inconsciente	-11.5922
▁innocence	-11.5922
▁mouse	-11.5922
▁oigo	-11.5922
▁oxygen	-11.5922
▁oxígeno	-11.5922
▁promotion	-11.5922
▁química	-11.5922
▁regreso	-11.5922
▁resort	-11.5922
▁tabaco	-11.5922
▁unreliable	-11.5922
▁época	-11.5922
▁seventeen	-11.5922
▁suceda	-11.5922
▁apology	-11.5922
▁parcial	-11.5922
▁policy	-11.5922
▁flour	-11.5922
▁pillow	-11.5923
▁cálido	-11.5923
▁deprimido	-11.5923
▁merecía	-11.5923
▁mutuamente	-11.5923
▁trunk	-11.5923
▁reducir	-11.5923
▁swear	-11.5923
▁kobe	-11.5923
▁discutiendo	-11.5923
▁brief	-11.5923
▁periodista	-11.5923
▁hugged	-11.5923
▁tinto	-11.5923
▁estantería	-11.5923
▁batería	-11.5923
▁wide	-11.5923
▁robando	-11.5923
▁repentinamente	-11.5923
▁observando	-11.5923
▁juguemos	-11.5923
▁dormida	-11.5923
▁safety	-11.5924
▁spade	-11.5924
▁sugiero	-11.5924
▁hammer	-11.5924
▁drowning	-11.5924
▁contraseña	-11.5924
▁password	-11.5924
▁revés	-11.5924
▁bible	-11.5925
▁gane	-11.5925
▁partida	-11.5925
▁bleeding	-11.5925
▁caído	-11.5925
▁soap	-11.5926
▁threatened	-11.5926
▁incómodo	-11.5926
▁abandonado	-11.5927
▁áfrica	-11.5927
▁partió	-11.5927
▁optimista	-11.5927
▁released	-11.5927
▁saque	-11.5928
▁pretendía	-11.5928
▁pido	-11.5928
▁disguised	-11.5929
▁afortunadamente	-11.593
▁arrogante	-11.5933
▁santa	-11.5933
▁decile	-11.5934
▁salgamos	-11.5934
▁siguieron	-11.5934
▁miraron	-11.5935
leaned	-11.5935
▁everest	-11.5937
▁jugadores	-11.5938
▁approved	-11.5938
▁estacionar	-11.5938
▁burning	-11.5939
▁riendo	-11.594
▁suffering	-11.5941
dical	-11.5941
▁kilos	-11.5942
▁shocked	-11.5942
▁naturales	-11.5942
construido	-11.5943
▁computadores	-11.5945
▁logro	-11.5945
▁fuertes	-11.5946
▁decente	-11.5956
cogí	-11.5957
▁moderna	-11.5957
▁cómoda	-11.596
▁sabor	-11.596
▁poeta	-11.5961
▁quarter	-11.5962
▁aparcar	-11.5962
▁feo	-11.5964
eza	-11.5965
▁evento	-11.5966
▁informed	-11.5968
▁respond	-11.597
▁yendo	-11.5974
▁trabajamos	-11.5979
v	-11.5979
▁labios	-11.5979
▁imp	-11.5981
▁celebrate	-11.5985
▁supplies	-11.5988
▁incorrecta	-11.5991
▁discuti	-11.6
▁decirlo	-11.6003
▁memorize	-11.6006
▁heater	-11.6015
▁pasarme	-11.6018
▁comprarse	-11.6023
▁saludó	-11.6025
▁considerar	-11.6025
▁conejos	-11.6034
eligió	-11.6051
▁clientes	-11.6051
▁juegan	-11.6052
▁painful	-11.6054
▁products	-11.6063
▁tourists	-11.6065
▁necesites	-11.6066
aciones	-11.6073
▁decepcionar	-11.6075
ín	-11.6077
▁regalar	-11.6078
▁chances	-11.6079
dando	-11.6084
tiendo	-11.6088
▁divorci	-11.6089
▁sabías	-11.6093
▁dependen	-11.61
▁extranjeras	-11.612
▁chistes	-11.6121
▁superar	-11.6127
▁comp	-11.6135
iz	-11.615
ico	-11.6198
▁abuse	-11.6219
▁consume	-11.6231
old	-11.6232
▁cultura	-11.6238
▁hoped	-11.6267
▁muchachos	-11.6284
▁aprobar	-11.6286
▁stepp	-11.6297
▁owner	-11.6299
▁entradas	-11.63
▁permit	-11.6306
▁encuentras	-11.6308
▁mentiras	-11.6311
▁acabas	-11.6324
▁tire	-11.6344
▁damage	-11.6354
▁gu	-11.6361
vamos	-11.6362
▁misterio	-11.6363
▁culture	-11.6363
▁sugerencia	-11.6363
▁reservation	-11.6364
▁clara	-11.6368
▁wheel	-11.6369
▁sujeto	-11.6369
▁lu	-11.637
▁belt	-11.6371
▁cuento	-11.6373
▁guardia	-11.6373
▁cliente	-11.6378
qui	-11.6381
▁dollar	-11.6388
▁familias	-11.639
▁fuente	-11.6399
▁permaneci	-11.6406
▁mono	-11.6414
▁resign	-11.6418
▁roll	-11.6427
▁suicidar	-11.6433
ria	-11.6445
ará	-11.6452
sumí	-11.6455
▁puñ	-11.646
queréis	-11.6462
tenéis	-11.6462
▁estacion	-11.6465
▁entendí	-11.6469
five	-11.6472
▁gifts	-11.6483
▁state	-11.6487
▁separate	-11.6491
▁lent	-11.6499
▁delay	-11.6499
▁habilidad	-11.6504
▁thorough	-11.6506
▁wealth	-11.6507
▁gentil	-11.6507
▁shout	-11.6507
▁rápida	-11.6508
▁affect	-11.6511
▁aburrida	-11.6511
▁admiro	-11.6511
▁anteojos	-11.6511
▁autumn	-11.6511
▁cedió	-11.6511
▁challenge	-11.6511
▁conjunto	-11.6511
▁desastre	-11.6511
▁desierta	-11.6511
▁downstairs	-11.6511
▁eighteen	-11.6511
▁estilo	-11.6511
▁financial	-11.6511
▁halloween	-11.6511
▁horario	-11.6511
▁hunch	-11.6511
▁journalist	-11.6511
▁junk	-11.6511
▁lastimó	-11.6511
▁lápices	-11.6511
▁narrow	-11.6511
▁promedio	-11.6511
▁príncipe	-11.6511
▁repugnante	-11.6511
▁scissors	-11.6511
▁simpático	-11.6511
▁statue	-11.6511
▁stubborn	-11.6511
▁traicionó	-11.6511
▁trigger	-11.6511
▁pálido	-11.6511
▁recién	-11.6511
▁sensación	-11.6511
▁desaparecido	-11.6511
▁flashlight	-11.6511
▁honey	-11.6511
▁quíta	-11.6511
▁falleció	-11.6511
▁slam	-11.6511
▁stomachache	-11.6511
▁atento	-11.6511
▁department	-11.6511
▁reduce	-11.6511
▁dozen	-11.6511
▁pozo	-11.6511
▁purse	-11.6511
▁sirvió	-11.6511
▁lavó	-11.6511
▁empiece	-11.6511
▁pipe	-11.6511
▁palace	-11.6511
▁antig	-11.6511
▁authority	-11.6511
▁eyesight	-11.6511
▁tóma	-11.6511
▁soltera	-11.6511
▁remarkable	-11.6511
▁harina	-11.6512
▁dibujo	-11.6512
▁acondicionado	-11.6512
▁confidence	-11.6512
▁rejected	-11.6513
▁soñando	-11.6513
▁happier	-11.6513
▁construcción	-11.6513
▁quejarse	-11.6513
▁atravesó	-11.6514
▁appetite	-11.6514
▁pavo	-11.6514
▁tela	-11.6515
zco	-11.6515
▁lotería	-11.6516
▁continuó	-11.6516
▁actúa	-11.6516
▁condición	-11.6518
▁boiling	-11.6518
▁proof	-11.6518
▁defense	-11.6519
um	-11.6519
▁explicarlo	-11.6519
▁swam	-11.6519
▁invitaron	-11.6519
▁muestra	-11.652
▁balde	-11.6521
▁screamed	-11.6523
▁desgracia	-11.6523
▁painter	-11.6523
▁sandwiches	-11.6524
▁cogido	-11.6525
▁logró	-11.6526
▁enseñaré	-11.6527
▁mataron	-11.6528
▁sobrevivir	-11.6529
▁cave	-11.6529
▁dominar	-11.653
▁busco	-11.653
▁informado	-11.6531
▁pasaste	-11.6532
▁responde	-11.6535
▁cochera	-11.6536
▁comparado	-11.6536
▁preguntarte	-11.6537
▁asientos	-11.6539
▁resistir	-11.6539
▁participate	-11.6542
▁gastos	-11.6543
▁tonta	-11.6544
▁lloverá	-11.6544
▁trabajas	-11.6546
▁apetece	-11.6546
▁senté	-11.6546
▁insistió	-11.6547
▁avoided	-11.6553
▁adivina	-11.6554
▁ponerme	-11.6557
▁utiliza	-11.6558
▁joy	-11.6559
▁crowded	-11.656
▁officer	-11.6562
▁checked	-11.6567
▁comete	-11.6569
▁rainy	-11.6571
▁uniforme	-11.6573
▁tiro	-11.6577
▁barber	-11.6578
▁guns	-11.6578
▁worrying	-11.6584
▁hijas	-11.6588
▁nodded	-11.659
▁completa	-11.659
▁breaking	-11.659
▁pasaría	-11.6594
▁assure	-11.6598
▁daría	-11.6606
▁foreigners	-11.6622
▁aman	-11.6632
▁adultos	-11.664
▁tires	-11.6655
▁encontrarte	-11.6661
▁knees	-11.6664
▁amarillas	-11.6679
▁osos	-11.6682
▁lamp	-11.6691
▁sienten	-11.6693
cer	-11.6694
pueden	-11.6707
▁lovely	-11.6709
tenemos	-11.6716
tir	-11.6722
▁prepara	-11.6744
▁lead	-11.6751
▁salgas	-11.6755
vi	-11.6769
▁molestar	-11.677
▁pasas	-11.6771
eh	-11.6777
▁listens	-11.6785
▁colecciona	-11.6792
▁aguantar	-11.6796
▁pages	-11.6803
▁cabe	-11.6809
▁logr	-11.6811
▁meals	-11.6827
▁encantador	-11.6828
ismo	-11.683
▁ocupar	-11.6833
▁understanding	-11.6842
pi	-11.6852
▁alegre	-11.6852
▁bolsillos	-11.6853
▁encantado	-11.6867
▁west	-11.6869
▁pockets	-11.687
▁consigue	-11.6876
▁revistas	-11.6879
▁cura	-11.6887
▁magazines	-11.6887
▁maletas	-11.6887
▁dare	-11.6898
▁norma	-11.6905
▁vayan	-11.6909
▁pencils	-11.6921
where	-11.6954
bo	-11.6955
podé	-11.6957
▁cups	-11.6961
▁lamenta	-11.6962
▁realizar	-11.6964
▁scream	-11.6965
▁advis	-11.6989
▁confuso	-11.699
▁pesadilla	-11.6996
▁brain	-11.6999
▁cortina	-11.7002
▁cheque	-11.7003
▁ghost	-11.7004
▁detalle	-11.7004
▁adulto	-11.7013
▁violent	-11.7018
▁traiga	-11.7018
▁italiano	-11.7023
▁mission	-11.703
▁detenido	-11.7034
tando	-11.7036
▁compara	-11.7056
cierto	-11.7061
▁doctors	-11.7062
▁bebí	-11.7063
vy	-11.7066
▁ayudes	-11.7069
▁owes	-11.7082
eras	-11.7085
sabés	-11.7086
tendré	-11.7087
▁evit	-11.7095
▁russia	-11.7096
▁collect	-11.7113
▁origin	-11.712
▁hesitate	-11.712
▁faint	-11.7123
▁confess	-11.7123
▁borde	-11.7124
▁superior	-11.7128
▁tenedor	-11.7128
▁comercial	-11.7129
▁convenient	-11.7131
▁spli	-11.7134
▁profunda	-11.7134
▁veneno	-11.7135
▁spot	-11.7135
▁tranquila	-11.7135
▁conscious	-11.7135
tacó	-11.7136
▁aceite	-11.7136
▁acepto	-11.7136
▁actitud	-11.7136
▁album	-11.7136
▁apetito	-11.7136
▁application	-11.7136
▁attitude	-11.7136
▁auténtico	-11.7136
▁cafetería	-11.7136
▁cambié	-11.7136
▁ciega	-11.7136
▁circumstances	-11.7136
▁clásica	-11.7136
▁complex	-11.7136
▁conocieron	-11.7136
▁conseguido	-11.7136
▁desmayó	-11.7136
▁determine	-11.7136
▁disculpó	-11.7136
▁duermo	-11.7136
▁eléctrica	-11.7136
▁garbage	-11.7136
▁gatillo	-11.7136
▁grifo	-11.7136
▁húmedo	-11.7136
▁independiente	-11.7136
▁international	-11.7136
▁intérprete	-11.7136
▁january	-11.7136
▁ladrones	-11.7136
▁lectura	-11.7136
▁ligero	-11.7136
▁linterna	-11.7136
▁luggage	-11.7136
▁mobile	-11.7136
▁mínimo	-11.7136
▁narita	-11.7136
▁necesaria	-11.7136
▁opposite	-11.7136
▁pajamas	-11.7136
▁patinar	-11.7136
▁physics	-11.7136
▁pánico	-11.7136
▁religión	-11.7136
▁research	-11.7136
▁responsibility	-11.7136
▁rising	-11.7136
▁rusia	-11.7136
▁veloz	-11.7136
▁vencido	-11.7136
▁virus	-11.7136
▁vídeo	-11.7136
▁corriente	-11.7136
▁screw	-11.7136
▁zona	-11.7136
▁infantil	-11.7136
▁romantic	-11.7136
▁amusing	-11.7136
▁disaster	-11.7136
▁typical	-11.7136
▁apague	-11.7136
▁assistant	-11.7136
▁palacio	-11.7136
▁siguiendo	-11.7136
▁acciones	-11.7136
▁vegetales	-11.7136
▁estatua	-11.7136
▁coincidencia	-11.7136
▁desperate	-11.7136
▁pink	-11.7136
▁láv	-11.7136
▁sink	-11.7136
▁resuelto	-11.7136
▁fog	-11.7136
▁pintor	-11.7136
▁almorzamos	-11.7136
▁aparentemente	-11.7136
▁datos	-11.7136
▁amazed	-11.7136
▁frog	-11.7136
▁nearby	-11.7136
▁further	-11.7136
▁communicate	-11.7136
▁ebrio	-11.7136
▁crema	-11.7136
▁secretary	-11.7136
▁poquito	-11.7137
▁operation	-11.7137
▁directamente	-11.7137
▁salimos	-11.7137
▁comenzado	-11.7137
▁strike	-11.7137
▁delgado	-11.7137
▁exitoso	-11.7137
▁pasaje	-11.7137
▁gripe	-11.7137
▁"¡	-11.7137
▁lenguaje	-11.7137
▁hatred	-11.7137
▁impedir	-11.7137
▁salón	-11.7138
▁cloudy	-11.7138
▁drowned	-11.7138
▁librería	-11.7139
▁flow	-11.7139
▁visible	-11.7139
▁revel	-11.7139
▁planned	-11.714
▁punctual	-11.714
▁encouraged	-11.714
▁subiendo	-11.714
▁sorprendería	-11.7141
▁astuto	-11.7141
▁alegría	-11.7141
▁perderás	-11.7141
▁respira	-11.7141
▁path	-11.7141
▁ciertamente	-11.7141
▁sentamos	-11.7142
▁cheered	-11.7142
▁enseñando	-11.7142
▁warmer	-11.7143
▁gastado	-11.7143
▁barrio	-11.7144
▁mostrarme	-11.7144
▁cheating	-11.7144
▁ganando	-11.7144
▁secó	-11.7144
▁divorcio	-11.7145
▁practical	-11.7146
▁loudly	-11.7146
▁mudó	-11.7146
▁retired	-11.7147
▁crush	-11.7147
▁deceived	-11.7148
▁lottery	-11.7148
▁fainted	-11.7148
▁unknown	-11.7149
▁float	-11.715
▁mezcla	-11.7152
▁border	-11.7152
▁reconocí	-11.7152
▁comamos	-11.7152
▁sincera	-11.7152
▁damaged	-11.7154
▁misión	-11.7155
▁crashed	-11.7156
▁yard	-11.7157
han	-11.7158
▁climbing	-11.716
▁ours	-11.7161
▁improved	-11.7161
▁career	-11.7163
▁preguntando	-11.7164
▁cultiva	-11.7165
▁respetar	-11.7166
▁insectos	-11.7166
▁conocerte	-11.7167
▁sudando	-11.7169
▁enojar	-11.7171
▁hundreds	-11.7175
▁cumple	-11.7199
▁aquél	-11.7202
▁daughters	-11.7204
▁estate	-11.7214
▁ideal	-11.7215
▁creemos	-11.7215
▁estudias	-11.7219
▁compraron	-11.7219
▁beard	-11.7222
▁mirá	-11.7227
▁tigers	-11.7236
ula	-11.7236
▁comb	-11.725
voted	-11.7254
▁lobos	-11.7254
▁dejas	-11.7262
▁oye	-11.7277
▁blamed	-11.7279
▁seated	-11.7284
▁enero	-11.7285
▁cigarrillos	-11.7289
▁pienses	-11.7289
manded	-11.7296
▁retirar	-11.7302
▁juguetes	-11.7324
▁documents	-11.7342
▁lawn	-11.7354
misunderstanding	-11.737
▁asegur	-11.7371
▁juntar	-11.7376
ica	-11.7404
▁showing	-11.7407
▁seria	-11.7415
▁abandon	-11.7421
op	-11.7429
▁sa	-11.7431
ke	-11.7437
▁bi	-11.744
▁pis	-11.7469
▁pa	-11.7471
▁baila	-11.7476
gó	-11.7477
▁stones	-11.7484
▁caus	-11.749
iera	-11.7491
x	-11.7499
▁ref	-11.7506
▁locos	-11.7507
▁llaman	-11.7512
▁lanza	-11.7517
▁dejá	-11.7519
▁toque	-11.7539
pr	-11.7551
▁derram	-11.7553
▁cds	-11.7588
▁llamadas	-11.7601
▁anterior	-11.7613
aban	-11.7624
▁asusta	-11.7633
out	-11.7653
▁asustar	-11.7654
▁universitario	-11.7655
▁divertida	-11.7655
▁ventaja	-11.7655
▁fresca	-11.7655
▁mosquito	-11.7659
▁barata	-11.7659
▁falsa	-11.7659
▁sonríe	-11.7659
▁prima	-11.7659
▁source	-11.7659
▁conocimiento	-11.7661
▁ciervo	-11.7662
▁corté	-11.7663
▁segundos	-11.7663
ló	-11.7665
▁cambie	-11.7667
▁conozca	-11.7667
▁pedazo	-11.7667
▁politician	-11.7667
▁prisionero	-11.7668
▁rabbit	-11.7668
▁sienta	-11.7669
▁conejo	-11.7669
▁serpiente	-11.7669
▁snake	-11.7669
▁liber	-11.7671
▁alimento	-11.7679
che	-11.7692
▁interior	-11.7698
▁bears	-11.7699
▁fu	-11.77
▁quema	-11.7704
▁quita	-11.7711
▁vaca	-11.7717
▁horror	-11.7722
▁firma	-11.7727
edades	-11.7733
▁ladra	-11.7739
▁loose	-11.7746
▁cen	-11.7747
▁temer	-11.7749
shirt	-11.7754
thirty	-11.7754
ahora	-11.7754
▁preocupados	-11.7755
▁caza	-11.7756
▁serve	-11.7756
handed	-11.7759
vale	-11.7762
▁pusi	-11.7763
▁astronaut	-11.7765
soy	-11.7768
▁vueltas	-11.7769
▁reunió	-11.7771
ustedes	-11.7773
▁mark	-11.7778
▁despertado	-11.7783
▁falls	-11.7784
▁engañar	-11.7788
▁quarrel	-11.7791
▁ángel	-11.7796
▁insist	-11.7796
▁escolar	-11.7797
▁skate	-11.7798
▁absolute	-11.7798
▁trigo	-11.7799
▁demostrar	-11.7799
▁negar	-11.7799
▁secretos	-11.78
scribió	-11.7801
▁dish	-11.7802
▁aprobado	-11.7802
▁asintió	-11.7802
▁decírselo	-11.7802
▁delegate	-11.7802
▁escrita	-11.7802
▁excepcional	-11.7802
▁exámenes	-11.7802
▁forehead	-11.7802
▁frigorífico	-11.7802
▁glance	-11.7802
▁handwriting	-11.7802
▁independent	-11.7802
▁médica	-11.7802
▁niebla	-11.7802
▁ochenta	-11.7802
▁ordinary	-11.7802
▁popcorn	-11.7802
▁purchase	-11.7802
▁recomendó	-11.7802
▁riqueza	-11.7802
▁rompecabezas	-11.7802
▁stool	-11.7802
▁surprising	-11.7802
▁sírva	-11.7802
▁thumb	-11.7802
▁timbre	-11.7802
▁toothpaste	-11.7802
▁translation	-11.7802
▁universal	-11.7802
▁volleyball	-11.7802
▁withdraw	-11.7802
▁wolves	-11.7802
▁álbum	-11.7802
▁audiencia	-11.7802
▁fierce	-11.7802
▁haircut	-11.7802
▁silk	-11.7802
▁culpo	-11.7802
▁pésimo	-11.7802
▁atractiva	-11.7802
▁heladera	-11.7802
▁aguanto	-11.7802
▁sake	-11.7802
▁bici	-11.7802
▁punishment	-11.7802
▁stew	-11.7803
▁magia	-11.7803
▁princesa	-11.7803
▁alquiler	-11.7803
▁cocinero	-11.7803
▁breed	-11.7803
▁renunció	-11.7803
▁volvamos	-11.7803
▁wings	-11.7803
▁escaso	-11.7803
▁bookstore	-11.7803
▁otherwise	-11.7803
▁tentación	-11.7803
▁silly	-11.7803
▁desocupado	-11.7803
▁powerful	-11.7803
▁internacional	-11.7803
▁comieron	-11.7803
▁investigando	-11.7803
▁wheat	-11.7803
▁esperábamos	-11.7803
▁practicing	-11.7804
▁published	-11.7804
▁treatment	-11.7804
▁national	-11.7804
▁nevó	-11.7804
▁tratamiento	-11.7804
▁prometido	-11.7804
▁reconoció	-11.7804
▁harvest	-11.7804
▁princess	-11.7804
▁micro	-11.7804
▁coal	-11.7804
▁thrilled	-11.7805
▁guía	-11.7805
▁bush	-11.7805
▁mencionó	-11.7805
▁charlar	-11.7805
▁sucedido	-11.7805
▁preocuparme	-11.7806
▁decidiste	-11.7806
▁beans	-11.7806
▁cumplió	-11.7807
▁scary	-11.7807
▁difficulties	-11.7807
▁sinceramente	-11.7807
▁invité	-11.7807
▁incorrecto	-11.7808
▁recuperó	-11.7808
▁active	-11.7808
▁llegada	-11.7809
▁bajando	-11.7809
▁golden	-11.7809
▁enamoró	-11.781
▁bow	-11.781
▁camping	-11.7811
▁grito	-11.7811
▁buscaba	-11.7811
▁distract	-11.7812
▁tercera	-11.7812
▁disco	-11.7812
▁cumplido	-11.7813
▁conducta	-11.7814
▁punch	-11.7814
▁agudo	-11.7814
▁mas	-11.7815
▁recursos	-11.7817
▁insects	-11.7817
▁tijeras	-11.7817
▁infeliz	-11.7818
▁higher	-11.7821
up	-11.7823
▁insulted	-11.7825
▁ahorros	-11.7826
▁llevé	-11.7827
▁contestó	-11.7827
▁remains	-11.7828
▁minor	-11.7828
▁dancer	-11.7829
▁llamaron	-11.7831
▁normally	-11.7833
▁cambiará	-11.7834
▁rió	-11.7835
todos	-11.7835
▁salvajes	-11.7835
▁alérgica	-11.7835
▁astronauta	-11.7839
▁señora	-11.7841
▁entiendes	-11.7841
▁relaxed	-11.7843
▁complaints	-11.7844
▁wipe	-11.7844
▁nerves	-11.7844
▁ayudarla	-11.7845
▁latest	-11.7847
▁papeles	-11.7849
▁instante	-11.7851
▁intentes	-11.7856
▁balance	-11.7861
▁avisar	-11.7862
▁lips	-11.7863
▁consecuencias	-11.7872
▁leyes	-11.7874
ame	-11.7874
▁deserved	-11.7875
▁entendería	-11.7875
▁trabajador	-11.788
▁cast	-11.7881
▁ancianos	-11.7882
▁mire	-11.7883
▁viví	-11.7889
▁fea	-11.789
▁tigres	-11.7901
▁trescient	-11.7901
▁veras	-11.7904
▁influencia	-11.7905
▁momentos	-11.7905
▁vais	-11.7906
▁ayudaré	-11.7907
▁sucede	-11.7911
▁budget	-11.7914
▁veros	-11.7916
you	-11.7917
▁content	-11.792
hi	-11.792
▁velas	-11.7921
▁terminará	-11.7922
▁streets	-11.7922
▁humana	-11.7926
▁alquilar	-11.7926
▁rojos	-11.7928
▁sientas	-11.7938
▁rabbits	-11.7938
▁nails	-11.7941
▁cortinas	-11.7948
▁secrets	-11.7957
▁reads	-11.7957
rían	-11.796
▁abus	-11.7967
▁beg	-11.7977
▁esperara	-11.7982
▁políticos	-11.7985
▁adults	-11.7985
▁prefieres	-11.7989
▁difíciles	-11.8006
▁interesantes	-11.8012
▁sangra	-11.8013
▁regards	-11.8014
▁atropell	-11.8016
▁llora	-11.8028
▁adoptar	-11.8029
▁ho	-11.8044
▁gustaban	-11.8045
▁llegaré	-11.8055
ible	-11.8063
led	-11.8065
▁cho	-11.8067
▁digan	-11.8068
▁letras	-11.8071
▁números	-11.8076
cho	-11.8078
▁vasos	-11.8082
▁escrib	-11.8089
▁estúpidas	-11.8099
▁smokes	-11.81
▁usan	-11.8101
lew	-11.8119
▁limpias	-11.812
▁vengan	-11.8122
fi	-11.814
▁fle	-11.8153
ados	-11.8153
▁fuerzas	-11.8156
▁suitcases	-11.8166
pped	-11.8185
▁sube	-11.8186
▁sopl	-11.82
tuviste	-11.8203
▁piedras	-11.8204
▁trozos	-11.8214
▁hablarle	-11.8236
▁cometa	-11.8265
▁ka	-11.8268
▁seda	-11.8273
▁perdona	-11.8273
ard	-11.8282
▁junt	-11.8283
rías	-11.8288
vertirse	-11.8292
▁acostumbr	-11.8297
ware	-11.8309
▁sew	-11.8317
▁aliment	-11.8333
▁tapa	-11.8333
chó	-11.8347
▁tirar	-11.8349
ished	-11.835
▁k	-11.835
▁milagro	-11.8369
▁odd	-11.8375
▁character	-11.8377
▁principiante	-11.838
ine	-11.838
▁elefante	-11.8382
▁comment	-11.8382
▁voluntario	-11.8382
▁nail	-11.8383
▁candle	-11.8384
▁fantasma	-11.8385
actuando	-11.8385
▁droga	-11.8385
▁competent	-11.8386
▁verdes	-11.8388
▁papa	-11.8391
▁deseos	-11.8391
▁rompe	-11.8391
▁foreigner	-11.8392
ily	-11.8394
▁sometime	-11.8405
▁memoriz	-11.8405
▁goat	-11.8407
▁tuyos	-11.8407
rte	-11.8409
ería	-11.8409
pé	-11.8416
▁consist	-11.8419
▁lobo	-11.8421
▁tumba	-11.8423
ándome	-11.8437
▁crece	-11.8439
▁comprende	-11.8442
ármelo	-11.8443
▁heridos	-11.8443
▁qui	-11.8444
▁gang	-11.8448
metió	-11.8451
▁individual	-11.8451
gracias	-11.8453
creés	-11.8465
fuiste	-11.8468
will	-11.847
▁rise	-11.8475
▁juegue	-11.8476
cy	-11.8476
▁disgust	-11.8476
▁korea	-11.8477
▁exact	-11.8477
ucho	-11.8478
ial	-11.8484
▁aspirin	-11.8487
▁comidas	-11.8491
vienes	-11.8494
▁plancha	-11.8494
▁disagree	-11.8497
▁influence	-11.85
▁postpone	-11.8502
▁crack	-11.8503
▁pronounce	-11.8505
dejaste	-11.8505
▁conduct	-11.8506
▁tax	-11.8507
▁aprecia	-11.8508
ob	-11.8508
imed	-11.8509
▁corea	-11.851
▁exterior	-11.851
▁furious	-11.8512
▁fluent	-11.8512
▁robber	-11.8513
▁prime	-11.8514
▁materia	-11.8515
▁moto	-11.8515
▁daños	-11.8515
▁east	-11.8515
▁orphan	-11.8517
▁commit	-11.8517
▁environment	-11.8517
▁arrival	-11.8517
▁arrow	-11.8517
▁circle	-11.8517
▁comencemos	-11.8517
▁círculo	-11.8517
▁description	-11.8517
▁discount	-11.8517
▁essential	-11.8517
▁explique	-11.8517
▁fbi	-11.8517
▁forecast	-11.8517
▁garaje	-11.8517
▁gatito	-11.8517
▁honeymoon	-11.8517
▁increasing	-11.8517
▁injusto	-11.8517
▁jabón	-11.8517
▁julio	-11.8517
▁llores	-11.8517
▁necklace	-11.8517
▁portugal	-11.8517
▁pudieron	-11.8517
▁racket	-11.8517
▁roosevelt	-11.8517
▁rotten	-11.8517
▁semejante	-11.8517
▁soborno	-11.8517
▁switzerland	-11.8517
▁technology	-11.8517
▁tecnología	-11.8517
▁unconscious	-11.8517
▁whisky	-11.8517
▁wolf	-11.8517
▁yourselves	-11.8517
▁árabe	-11.8517
▁acento	-11.8517
▁conceal	-11.8517
▁hilton	-11.8517
▁hiroshima	-11.8517
▁millionaire	-11.8517
▁sesenta	-11.8517
▁below	-11.8517
▁inesperado	-11.8517
▁suicidio	-11.8517
▁briefcase	-11.8517
▁gym	-11.8517
▁plain	-11.8517
▁ésos	-11.8517
▁charity	-11.8517
▁delegados	-11.8517
▁escoba	-11.8517
▁optimistic	-11.8517
▁presencia	-11.8517
▁suiza	-11.8517
▁recurrir	-11.8517
▁composition	-11.8517
▁jury	-11.8517
▁nacimiento	-11.8517
▁dizzy	-11.8517
▁volviera	-11.8517
▁underestimate	-11.8517
▁toyota	-11.8517
▁cuero	-11.8517
▁tidy	-11.8517
▁confíe	-11.8517
▁continuación	-11.8517
▁sorprendente	-11.8517
▁desagradable	-11.8517
▁figura	-11.8517
▁broom	-11.8517
▁casco	-11.8517
▁fuga	-11.8517
▁mojado	-11.8517
▁digging	-11.8518
▁pusiste	-11.8518
▁operación	-11.8518
▁rechazado	-11.8518
▁interpreter	-11.8518
▁convertido	-11.8518
▁medalla	-11.8518
▁unlocked	-11.8518
▁reino	-11.8518
▁empeorando	-11.8518
▁automovilístico	-11.8518
▁empezaste	-11.8519
▁condenado	-11.8519
▁unlucky	-11.8519
▁july	-11.8519
▁fake	-11.8519
▁spicy	-11.8519
▁parties	-11.8519
▁chew	-11.852
▁oven	-11.852
▁enviado	-11.852
▁permitió	-11.8521
▁pusiera	-11.8521
▁cambiando	-11.8521
▁desayunado	-11.8521
▁caí	-11.8522
▁preocuparte	-11.8522
▁funcionará	-11.8522
▁nieva	-11.8522
▁struck	-11.8522
▁track	-11.8522
▁votaron	-11.8522
▁style	-11.8522
▁inquieto	-11.8523
▁preparada	-11.8523
▁talentoso	-11.8524
▁probarlo	-11.8525
▁hunger	-11.8525
▁suelto	-11.8526
▁disgusting	-11.8527
▁sentaron	-11.8527
▁arreglarlo	-11.8527
▁coreano	-11.8527
▁banca	-11.8528
▁convencerle	-11.8528
▁oración	-11.8529
▁nado	-11.8529
▁llegando	-11.853
▁online	-11.853
▁sobrevivió	-11.8532
▁bola	-11.8533
▁cortado	-11.8534
▁hilo	-11.8534
▁medal	-11.8535
▁mentí	-11.8535
▁saludos	-11.8535
▁ba	-11.8536
▁eighty	-11.8536
▁earned	-11.8537
▁pure	-11.8538
▁resources	-11.8542
▁tango	-11.8543
▁tocaba	-11.8544
▁caridad	-11.8545
▁aspirina	-11.8547
▁confident	-11.855
▁firmó	-11.8552
▁palo	-11.8552
▁enfermedades	-11.8553
▁recordó	-11.8555
▁vacant	-11.8558
▁breathing	-11.856
▁eche	-11.8566
▁decisiones	-11.8568
▁bomberos	-11.8573
▁entering	-11.8579
▁populares	-11.8579
▁loosen	-11.858
▁visitarme	-11.8582
▁crops	-11.8582
▁permíta	-11.8587
▁encontrarlo	-11.8594
▁operate	-11.8599
▁pierdas	-11.8602
▁customers	-11.8602
▁ingresos	-11.8603
▁toys	-11.8606
▁stands	-11.861
zo	-11.861
▁comemos	-11.861
▁adolescentes	-11.8613
▁negros	-11.8614
▁casaron	-11.8621
▁latin	-11.8622
▁parts	-11.8633
▁aseguro	-11.8639
▁chairs	-11.8643
▁encontrarme	-11.8645
▁canilla	-11.8649
▁judg	-11.865
▁vivos	-11.8658
▁cuentas	-11.866
▁invent	-11.8665
▁despegar	-11.8667
▁precioso	-11.8673
▁juntas	-11.8675
▁anota	-11.8679
▁sillas	-11.8684
▁pides	-11.8693
▁monos	-11.8702
▁pares	-11.8713
▁prisoners	-11.8725
▁sorprender	-11.8729
▁tip	-11.873
▁cancelar	-11.8739
▁ciudadanos	-11.8745
▁shine	-11.8746
▁ends	-11.8765
▁nación	-11.8768
▁hermosas	-11.8773
▁stops	-11.8778
▁savings	-11.8785
▁decisions	-11.8794
▁jugará	-11.8797
▁aun	-11.8805
ura	-11.8808
▁durar	-11.8811
▁faces	-11.8812
▁revisar	-11.882
▁formal	-11.8831
▁suicida	-11.8846
▁dr	-11.8854
ea	-11.891
▁mild	-11.8914
▁jo	-11.8918
▁metas	-11.8922
▁alerta	-11.8926
▁golpear	-11.8952
ez	-11.8962
ezca	-11.8963
▁stare	-11.8965
▁contactar	-11.8969
tan	-11.8971
▁baña	-11.8973
men	-11.8977
tara	-11.8985
▁grano	-11.8999
▁risks	-11.9002
▁gastar	-11.9004
▁gustar	-11.901
▁term	-11.9011
▁invit	-11.902
▁pequeñas	-11.9036
▁amanecer	-11.9043
▁frutas	-11.9043
▁ab	-11.9047
▁odiar	-11.9052
▁trampas	-11.9065
▁flirt	-11.9068
▁li	-11.9071
▁pet	-11.9074
sistieron	-11.9079
▁laughs	-11.9086
▁tira	-11.9087
▁sabrá	-11.9101
▁economic	-11.9103
▁foods	-11.9105
▁encontraré	-11.9117
▁boil	-11.9124
minded	-11.9124
▁miracle	-11.9138
▁sabio	-11.9138
▁invention	-11.9138
▁crudo	-11.9141
▁conociera	-11.9142
▁nightmare	-11.9142
▁constant	-11.9144
▁pig	-11.9145
▁hierba	-11.9145
▁tontería	-11.9145
▁block	-11.9146
▁límite	-11.9147
▁diamante	-11.9148
▁elephant	-11.9151
▁rueda	-11.9151
▁sincero	-11.9151
▁farmer	-11.9152
▁rayo	-11.9153
▁cow	-11.9153
▁peligrosa	-11.9154
▁sorprendidos	-11.9159
▁rana	-11.916
▁cable	-11.917
▁exams	-11.9181
ze	-11.9183
ier	-11.9193
▁ayudarlo	-11.92
▁chill	-11.9208
nza	-11.9208
▁cop	-11.922
▁bonitas	-11.9222
▁leña	-11.923
oíste	-11.9235
phone	-11.9237
house	-11.9238
volvió	-11.9242
▁tomaste	-11.9243
tomás	-11.9243
sabías	-11.9245
mira	-11.9247
▁famosos	-11.9254
▁viajes	-11.9254
▁cheat	-11.9264
oh	-11.9267
▁cloth	-11.9269
▁bake	-11.9271
▁rescue	-11.9271
▁respeta	-11.9272
▁mexican	-11.9272
▁reward	-11.9272
▁develop	-11.9273
▁pianist	-11.9274
▁graduate	-11.9277
▁fren	-11.9277
▁divertir	-11.9279
▁dólar	-11.9279
▁spill	-11.928
▁cuchara	-11.9281
▁cálida	-11.9282
▁conociste	-11.9284
▁comfort	-11.9285
▁declara	-11.9285
▁orgullosos	-11.9286
▁acquaint	-11.9286
▁settle	-11.9286
▁flash	-11.9286
▁aguja	-11.9286
▁alibi	-11.9286
▁alphabet	-11.9286
▁awesome	-11.9286
▁campaign	-11.9286
▁carbón	-11.9286
▁castigo	-11.9286
▁chemistry	-11.9286
▁chimenea	-11.9286
▁chocó	-11.9286
▁combustible	-11.9286
▁conmovió	-11.9286
▁económica	-11.9286
▁egypt	-11.9286
▁enemiga	-11.9286
▁engañe	-11.9286
▁estricta	-11.9286
▁estufa	-11.9286
▁fantastic	-11.9286
▁faucet	-11.9286
▁filipino	-11.9286
▁flame	-11.9286
▁generous	-11.9286
▁homicidio	-11.9286
▁huelga	-11.9286
▁inténtalo	-11.9286
▁luxury	-11.9286
▁lyrics	-11.9286
▁lámpara	-11.9286
▁overslept	-11.9286
▁pedimos	-11.9286
▁portátil	-11.9286
▁poverty	-11.9286
▁préstamo	-11.9286
▁puerto	-11.9286
▁pública	-11.9286
▁reliable	-11.9286
▁romántico	-11.9286
▁semáforo	-11.9286
▁shampoo	-11.9286
▁surrounded	-11.9286
▁sweep	-11.9286
▁taburete	-11.9286
▁telefónica	-11.9286
▁terribly	-11.9286
▁unhealthy	-11.9286
▁veterinario	-11.9286
▁victim	-11.9286
▁videojuegos	-11.9286
▁wednesday	-11.9286
▁coach	-11.9286
▁envíe	-11.9286
▁excepción	-11.9286
▁hirviendo	-11.9286
▁justicia	-11.9286
▁predecir	-11.9286
▁jurado	-11.9286
▁smith	-11.9286
▁fifth	-11.9286
▁militar	-11.9286
▁region	-11.9286
▁campaña	-11.9286
▁literatura	-11.9286
▁divirtiendo	-11.9286
▁multa	-11.9286
▁asistente	-11.9286
▁competencia	-11.9286
▁property	-11.9286
▁temptation	-11.9286
▁inundación	-11.9286
▁cellphone	-11.9286
▁freedom	-11.9286
▁perdiste	-11.9286
▁fascinante	-11.9286
▁slipped	-11.9286
▁asombroso	-11.9286
▁exigi	-11.9286
▁skinny	-11.9286
▁possibly	-11.9286
▁collection	-11.9286
▁fumo	-11.9286
▁investigating	-11.9286
▁fascinating	-11.9286
▁producción	-11.9286
▁shallow	-11.9286
▁gimnasio	-11.9286
▁amargo	-11.9286
▁scarf	-11.9286
▁defectos	-11.9286
▁mandé	-11.9286
ámonos	-11.9286
▁miserable	-11.9286
▁soleado	-11.9287
▁announced	-11.9287
▁estuviese	-11.9287
▁ninety	-11.9287
▁nublado	-11.9287
▁practicando	-11.9287
▁sunset	-11.9287
▁goose	-11.9287
▁máximo	-11.9287
▁ahorrando	-11.9287
▁mareado	-11.9287
▁tasa	-11.9287
▁humanidad	-11.9287
▁ocasiones	-11.9287
▁grasa	-11.9287
▁maid	-11.9287
▁desorientado	-11.9287
▁bunch	-11.9287
▁cerebro	-11.9288
▁presupuesto	-11.9288
▁aumentando	-11.9288
▁típico	-11.9288
▁mantenga	-11.9288
▁charming	-11.9288
▁embarrassing	-11.9288
▁cuanta	-11.9288
▁roommate	-11.9288
▁apurado	-11.9288
▁shining	-11.9288
▁prometí	-11.9288
▁reality	-11.9288
▁pardon	-11.9288
▁chores	-11.9288
▁camp	-11.9288
▁asustada	-11.9289
▁rama	-11.9289
▁charlando	-11.9289
▁leather	-11.9289
▁sufrió	-11.929
▁guide	-11.929
▁relieved	-11.929
come	-11.9291
▁shape	-11.9291
▁molestando	-11.9291
▁approached	-11.9291
▁millonario	-11.9292
▁agradecerle	-11.9292
▁quejarte	-11.9293
▁conseguiste	-11.9293
▁ángeles	-11.9294
▁absurdo	-11.9294
▁confiaba	-11.9294
▁crió	-11.9294
▁compone	-11.9295
▁security	-11.9295
▁recovered	-11.9295
▁recomendar	-11.9295
▁diseño	-11.9296
▁rodeado	-11.9296
▁convencerlo	-11.9296
▁clothing	-11.9296
▁empecemos	-11.9296
▁pudiste	-11.9296
▁traído	-11.9296
▁mueve	-11.9296
▁saldrá	-11.9296
▁dyed	-11.9298
▁pianista	-11.9298
▁entrenador	-11.9299
▁anytime	-11.9301
▁descripción	-11.9302
▁evidente	-11.9302
▁quint	-11.9302
▁sentarte	-11.9302
▁ranch	-11.9302
▁mientas	-11.9302
▁memorizar	-11.9302
▁pensamientos	-11.9302
▁terminamos	-11.9303
▁pasta	-11.9303
▁shooting	-11.9303
▁escala	-11.9304
▁reírme	-11.9304
▁sigamos	-11.9304
▁stain	-11.9306
▁enterrado	-11.9307
▁searching	-11.9309
▁escuchaste	-11.9311
▁drawing	-11.9311
▁admired	-11.9311
▁repeated	-11.9311
▁helpful	-11.9313
▁mentioned	-11.9317
▁entenderlo	-11.9318
▁fatal	-11.9318
▁pinch	-11.9319
▁longest	-11.9319
▁oírlo	-11.932
▁packed	-11.9322
▁gustará	-11.9323
▁enseñarte	-11.9323
▁contarle	-11.9323
▁crown	-11.9325
▁vela	-11.9325
▁soñar	-11.9329
▁durará	-11.933
▁ajustar	-11.9335
▁examine	-11.9335
▁fooled	-11.9336
▁opiniones	-11.9336
▁tasted	-11.9341
▁entendió	-11.9341
▁slapp	-11.9344
▁direct	-11.9346
▁accent	-11.935
▁appreciated	-11.935
▁data	-11.9355
▁llevado	-11.9357
▁aprovechar	-11.9357
▁escuchas	-11.9362
▁welcomed	-11.9363
▁libres	-11.9365
▁escuchaba	-11.9366
▁pagará	-11.9369
▁charle	-11.9377
▁tools	-11.9378
▁citizens	-11.9378
▁escuches	-11.9379
▁ocurren	-11.9382
▁tells	-11.9383
▁sobras	-11.9389
▁dial	-11.9389
▁mejorando	-11.9399
▁molestes	-11.9401
▁doscient	-11.9405
▁mass	-11.9419
ling	-11.9421
▁creep	-11.9424
ned	-11.9426
▁candles	-11.9434
▁prisioneros	-11.9444
hablas	-11.9451
▁cultural	-11.9453
bré	-11.9454
▁lid	-11.9454
▁sucia	-11.946
▁llenos	-11.9462
▁ages	-11.9469
▁encuentres	-11.9477
▁rodillas	-11.9477
▁manten	-11.9477
▁dejarte	-11.949
tura	-11.95
▁cha	-11.9532
▁entienden	-11.9536
sos	-11.9545
▁sabíamos	-11.9554
▁hambrientos	-11.9555
way	-11.9563
ka	-11.9571
▁answering	-11.958
sistencia	-11.9587
gi	-11.9588
▁walls	-11.9596
▁burns	-11.96
▁arrives	-11.96
▁contiene	-11.962
▁vinieras	-11.9621
▁admira	-11.9627
▁pospone	-11.963
▁esperá	-11.9637
▁ku	-11.9663
▁mental	-11.9685
sistió	-11.9688
▁interpret	-11.9692
▁cakes	-11.9699
▁pat	-11.9709
mu	-11.9709
encia	-11.9714
▁abogados	-11.9717
▁conditions	-11.9718
▁solicit	-11.9723
▁esperes	-11.9724
▁ocult	-11.9728
the	-11.973
▁blancos	-11.9739
▁jugu	-11.9753
ric	-11.9754
▁supieras	-11.9756
vete	-11.9756
▁acabe	-11.9767
▁arrojar	-11.977
▁agrees	-11.9774
▁sir	-11.9789
▁pare	-11.9804
▁asks	-11.9814
▁llamara	-11.9819
fully	-11.9822
▁visitas	-11.9825
estaba	-11.9852
▁fa	-11.9854
▁puestos	-11.9872
▁negoci	-11.9873
▁weigh	-11.988
▁aplica	-11.9887
▁temas	-11.9916
ang	-11.9923
▁viejas	-11.9937
▁seek	-11.9942
▁regresa	-11.9945
▁extend	-11.9949
▁comprara	-11.995
▁seize	-11.9951
▁idiotas	-11.9955
▁quedará	-11.9957
▁paintings	-11.9971
▁pijama	-11.9972
▁ovni	-11.9972
▁ufo	-11.9972
▁andá	-11.9976
▁siguen	-11.9981
▁archivo	-11.9981
▁blanket	-11.9981
▁buildings	-11.9982
▁gemelo	-11.9986
▁banana	-11.9986
▁araña	-11.9987
▁relative	-11.9987
▁alumno	-11.9987
▁tiger	-11.9988
▁trick	-11.9988
▁pondrá	-11.9991
▁sheet	-12.0003
▁consiga	-12.0014
▁cambios	-12.0017
tera	-12.0019
med	-12.0021
▁recuerdos	-12.0027
▁becomes	-12.0055
▁alas	-12.0061
▁blam	-12.0062
zing	-12.0062
▁oscur	-12.0067
employed	-12.0067
llama	-12.007
sobre	-12.0071
recibi	-12.0073
▁resume	-12.0073
▁industrial	-12.0075
aún	-12.0078
▁exit	-12.0079
▁mudar	-12.008
▁image	-12.0081
▁palm	-12.0086
▁montó	-12.0087
▁organ	-12.0087
▁labor	-12.0088
▁cuantos	-12.0094
▁bark	-12.0098
▁absurd	-12.0098
▁repetir	-12.0104
▁surrender	-12.0105
▁pistol	-12.0106
▁accomplish	-12.0106
▁defeat	-12.0107
▁novelist	-12.0107
aña	-12.0108
▁tercer	-12.0108
▁period	-12.011
▁acudir	-12.0112
▁potato	-12.0113
▁cuadra	-12.0113
▁incredibl	-12.0114
▁recent	-12.0115
▁happie	-12.0116
▁estupenda	-12.0116
cio	-12.0116
▁probado	-12.0117
▁susurr	-12.0117
▁compro	-12.0118
▁circula	-12.0119
▁rug	-12.0119
▁disneyland	-12.0119
▁bastón	-12.0119
▁cadena	-12.0119
▁coartada	-12.0119
▁cueva	-12.0119
▁curiosity	-12.0119
▁dirige	-12.0119
▁eager	-12.0119
▁egipto	-12.0119
▁engañado	-12.0119
▁febrero	-12.0119
▁february	-12.0119
▁hagámoslo	-12.0119
▁indispensable	-12.0119
▁invisible	-12.0119
▁jersey	-12.0119
▁juramento	-12.0119
▁koala	-12.0119
▁mahjong	-12.0119
▁maletero	-12.0119
▁motocicleta	-12.0119
▁obtuve	-12.0119
▁olvidadizo	-12.0119
▁outdoors	-12.0119
▁pacífico	-12.0119
▁perfume	-12.0119
▁plastic	-12.0119
▁pésima	-12.0119
▁resemblance	-12.0119
▁sacerdote	-12.0119
▁scheme	-12.0119
▁skating	-12.0119
▁solving	-12.0119
▁stiff	-12.0119
▁sucediendo	-12.0119
▁suspicion	-12.0119
▁twitter	-12.0119
▁uncomfortable	-12.0119
▁victoria	-12.0119
▁vodka	-12.0119
▁voleibol	-12.0119
▁colección	-12.0119
▁pledge	-12.0119
▁raqueta	-12.0119
▁construction	-12.0119
▁enojó	-12.0119
▁noventa	-12.0119
▁surgery	-12.0119
▁apropiado	-12.0119
▁oath	-12.0119
▁spoon	-12.0119
▁textbook	-12.0119
▁despegó	-12.0119
▁essay	-12.0119
▁hurried	-12.0119
▁registradora	-12.0119
▁steak	-12.0119
▁forzado	-12.0119
▁pollera	-12.0119
▁siglo	-12.0119
▁región	-12.0119
▁assistance	-12.0119
▁perdida	-12.0119
▁traducción	-12.0119
▁teresa	-12.0119
▁creciendo	-12.0119
▁kong	-12.0119
▁viniendo	-12.0119
rubbed	-12.0119
▁tries	-12.0119
▁ignorance	-12.0119
▁queráis	-12.0119
▁ignorancia	-12.0119
▁detallada	-12.012
▁empeorar	-12.012
▁condujera	-12.012
▁production	-12.012
▁chef	-12.012
▁prometiste	-12.012
▁aggressive	-12.012
▁scarce	-12.012
▁marzo	-12.012
▁presentimiento	-12.012
▁jarra	-12.012
▁serbia	-12.012
▁modales	-12.012
▁pobreza	-12.012
▁comenzando	-12.012
▁downtown	-12.012
▁gané	-12.012
▁lloraba	-12.012
▁latín	-12.0121
▁talkative	-12.0121
▁concentrarme	-12.0121
▁relajado	-12.0121
▁hunter	-12.0121
▁kidnapped	-12.0121
▁sentimos	-12.0121
▁harp	-12.0121
▁tolerate	-12.0121
▁retrasado	-12.0121
▁severo	-12.0121
▁contrató	-12.0121
▁tardará	-12.0121
▁secretaria	-12.0122
▁miércoles	-12.0122
▁dawn	-12.0122
▁petición	-12.0122
▁effective	-12.0122
▁retiró	-12.0122
▁previsto	-12.0122
▁postura	-12.0122
▁sixty	-12.0122
▁ceremonia	-12.0122
▁defender	-12.0122
▁aventura	-12.0122
▁fried	-12.0123
▁plead	-12.0123
▁solid	-12.0124
▁cuán	-12.0124
▁pride	-12.0124
▁fumando	-12.0124
▁conciencia	-12.0125
▁sword	-12.0125
▁agradecerte	-12.0125
▁theft	-12.0126
▁incredible	-12.0126
▁marchar	-12.0127
tas	-12.0128
▁lastimado	-12.0128
▁yelling	-12.0128
▁frontera	-12.0128
▁besando	-12.0129
▁rancho	-12.013
▁saldr	-12.013
▁función	-12.0131
▁rollo	-12.0131
▁cruza	-12.0131
▁remote	-12.0132
gging	-12.0132
▁congratulated	-12.0132
▁jar	-12.0132
▁apuntes	-12.0133
ice	-12.0133
▁sándwiches	-12.0134
▁defeated	-12.0134
▁correctamente	-12.0134
▁windy	-12.0135
▁especialmente	-12.0136
▁collected	-12.0136
▁trash	-12.0138
▁install	-12.0138
▁resigned	-12.0138
▁wan	-12.0138
▁prayed	-12.0138
▁frozen	-12.0139
donald	-12.0139
▁compramos	-12.0139
▁postponed	-12.0139
▁sufre	-12.014
▁importaba	-12.0141
▁cogieron	-12.0141
▁buscas	-12.0142
▁lavarse	-12.0144
▁repairing	-12.0144
▁pala	-12.0144
▁practicar	-12.0144
▁interrupted	-12.0145
▁planeado	-12.0146
omic	-12.0146
▁trabaje	-12.0147
▁contenta	-12.0147
▁intentaré	-12.0148
▁levantarte	-12.0148
▁expenses	-12.0152
▁advanced	-12.0152
▁bal	-12.0154
▁alike	-12.0154
▁averigua	-12.0154
▁llegaremos	-12.0155
▁remove	-12.0159
▁knocking	-12.0159
▁pensarlo	-12.0159
▁flea	-12.0161
▁hamburguesas	-12.0161
▁cure	-12.0162
▁vendedor	-12.0164
▁salía	-12.0166
▁waiter	-12.0166
▁ayudaros	-12.0167
▁compraría	-12.0167
▁helpless	-12.0169
▁matarme	-12.0169
▁corona	-12.0173
▁dormía	-12.0176
▁cantaba	-12.0176
▁huérfano	-12.0176
▁ponerlo	-12.018
▁pronuncia	-12.018
▁entendía	-12.0182
▁observar	-12.0183
▁consideran	-12.0184
▁sung	-12.0184
▁arrancar	-12.0184
▁x	-12.0186
▁rumores	-12.0188
▁estaciones	-12.0189
▁agradec	-12.0189
▁shed	-12.0192
▁litera	-12.0192
pó	-12.0192
▁reconocer	-12.0194
▁preguntado	-12.0194
▁estampillas	-12.0197
▁handy	-12.0197
▁counting	-12.0197
tic	-12.02
▁dresses	-12.02
▁verás	-12.0202
▁robot	-12.0203
▁cal	-12.0206
▁rep	-12.0206
▁aboard	-12.021
▁falló	-12.021
▁hablara	-12.021
▁mislead	-12.021
▁manej	-12.0214
▁recuperar	-12.0219
▁boxes	-12.0219
▁plátanos	-12.022
▁cometí	-12.022
▁mud	-12.0231
▁ballenas	-12.0232
▁crecer	-12.0236
▁consiste	-12.0237
▁armed	-12.0238
▁probó	-12.0241
▁skills	-12.0245
dded	-12.0247
per	-12.025
▁cops	-12.0264
▁mor	-12.0266
▁elephants	-12.0268
▁ruedas	-12.0268
▁abandona	-12.027
▁funcione	-12.0276
▁rested	-12.0279
▁elefantes	-12.028
▁comments	-12.028
▁pace	-12.0286
rán	-12.0288
▁pedazos	-12.0292
▁politicians	-12.0292
tions	-12.0293
▁prob	-12.0295
▁cheques	-12.0304
▁relate	-12.0305
vos	-12.0324
▁bitte	-12.0327
▁curtains	-12.0328
▁sucios	-12.0328
▁criad	-12.0336
▁acto	-12.0337
▁forgiven	-12.0342
▁enfrentar	-12.0357
▁confund	-12.0362
▁official	-12.0366
▁caras	-12.0369
▁adaptar	-12.0375
▁aumenta	-12.0376
▁tristes	-12.0378
▁antiguas	-12.0389
▁inso	-12.0399
▁tocado	-12.0412
▁pills	-12.0412
▁tiendas	-12.0425
▁tard	-12.0431
▁persuadir	-12.0434
▁antiguos	-12.0437
▁heridas	-12.0437
▁cases	-12.0447
▁vivi	-12.0451
signed	-12.046
▁pesos	-12.0473
▁phoned	-12.0475
alo	-12.0481
▁numbers	-12.0481
cking	-12.0494
▁lawyers	-12.0508
▁ciertas	-12.051
▁abuelos	-12.0531
▁wasted	-12.0534
▁acusar	-12.0539
selo	-12.0553
▁riesgos	-12.0554
ered	-12.0555
▁informar	-12.0556
▁atrapados	-12.0559
cen	-12.056
▁cajas	-12.0562
▁confirm	-12.0563
▁sides	-12.0567
ué	-12.0578
▁bu	-12.0582
ary	-12.0602
lic	-12.0604
▁horne	-12.0613
▁gr	-12.0616
▁habits	-12.0621
▁aguanta	-12.0624
put	-12.0655
▁leía	-12.0661
▁faltan	-12.0662
0,000	-12.0672
▁mix	-12.0674
▁queríamos	-12.0678
▁bonitos	-12.0682
▁bags	-12.0686
▁mayo	-12.0704
▁arregla	-12.0713
▁nativos	-12.0719
▁saluda	-12.0734
▁exception	-12.0735
▁andaba	-12.0738
▁pega	-12.074
▁desprecia	-12.0757
▁chinos	-12.0758
▁pu	-12.0766
▁vení	-12.0766
▁operar	-12.0773
▁mereces	-12.0775
ter	-12.0778
▁spa	-12.0781
▁rem	-12.0785
▁suits	-12.0785
▁needle	-12.079
via	-12.0799
▁espaldas	-12.0806
▁th	-12.0825
▁juegas	-12.0828
▁estudios	-12.0831
▁causar	-12.0837
▁explic	-12.0844
▁explica	-12.0855
▁ste	-12.0859
▁clave	-12.0861
▁fac	-12.0872
▁skill	-12.0872
▁volunteer	-12.0874
▁económico	-12.0881
▁eléctrico	-12.0881
▁encendida	-12.0881
▁topic	-12.0886
▁bump	-12.0887
▁levante	-12.0888
▁distinta	-12.0889
▁kite	-12.0889
▁slice	-12.0889
▁granjero	-12.089
▁lemon	-12.0891
▁entienda	-12.0891
▁desconocido	-12.0892
▁truco	-12.0892
▁antique	-12.0893
▁tigre	-12.0894
ally	-12.0899
▁turista	-12.09
▁grado	-12.0909
ul	-12.0913
▁fina	-12.0918
▁lines	-12.093
▁bills	-12.0931
▁moleste	-12.0936
▁déje	-12.094
▁decí	-12.0945
▁vigila	-12.0947
▁divid	-12.0949
▁secreta	-12.097
sabéis	-12.0974
ayer	-12.098
compraste	-12.098
mañana	-12.098
ship	-12.0982
▁empujó	-12.0984
aquí	-12.0984
0,	-12.0987
▁registr	-12.099
▁ancho	-12.099
▁enamorados	-12.0995
▁sub	-12.1001
ándole	-12.1003
▁ol	-12.1006
▁yell	-12.1008
▁deliver	-12.1012
▁llovi	-12.1014
▁squeak	-12.1014
▁punish	-12.1016
▁destroy	-12.1016
▁crawl	-12.1018
▁checks	-12.102
▁basta	-12.102
▁bore	-12.1022
▁cheerful	-12.1023
▁ligera	-12.1025
▁inmediata	-12.1026
▁engaño	-12.1026
▁reciente	-12.1026
▁aparenta	-12.1027
▁orgullo	-12.1028
▁depart	-12.1028
▁thai	-12.1028
▁muéstre	-12.1028
▁financiera	-12.1028
▁lógica	-12.1028
caño	-12.1028
▁acknowledge	-12.1028
▁almuerza	-12.1028
▁appropriate	-12.1028
▁apuñaló	-12.1028
▁atmosphere	-12.1028
▁atmósfera	-12.1028
▁awoke	-12.1028
▁bathtub	-12.1028
▁blouse	-12.1028
▁bufanda	-12.1028
▁chalk	-12.1028
▁columbus	-12.1028
▁cordones	-12.1028
▁cómete	-12.1028
▁diablo	-12.1028
▁dieciséis	-12.1028
▁divertimos	-12.1028
▁dáselo	-12.1028
▁estricto	-12.1028
▁estropeado	-12.1028
▁estupidez	-12.1028
▁fellow	-12.1028
▁fluidamente	-12.1028
▁graduó	-12.1028
▁greece	-12.1028
▁imágenes	-12.1028
▁insecure	-12.1028
▁intenciones	-12.1028
▁link	-12.1028
▁literature	-12.1028
▁lío	-12.1028
▁marrón	-12.1028
▁maíz	-12.1028
▁movió	-12.1028
▁muralla	-12.1028
▁positive	-12.1028
▁revenge	-12.1028
▁ritmo	-12.1028
▁récord	-12.1028
▁sanguíneo	-12.1028
▁scotland	-12.1028
▁shoelaces	-12.1028
▁spaghetti	-12.1028
▁sueltes	-12.1028
▁telefónico	-12.1028
▁traitor	-12.1028
▁trousers	-12.1028
▁tunnel	-12.1028
▁término	-12.1028
▁undressing	-12.1028
▁unpleasant	-12.1028
▁victory	-12.1028
▁ópera	-12.1028
▁berlin	-12.1028
▁blusa	-12.1028
▁helmet	-12.1028
▁perezoso	-12.1028
▁risa	-12.1028
▁smooth	-12.1028
▁destiny	-12.1028
▁escocia	-12.1028
▁jerk	-12.1028
▁traidor	-12.1028
▁arabic	-12.1028
▁atractivo	-12.1028
▁morder	-12.1028
▁pausa	-12.1028
▁propiedad	-12.1028
▁prevenir	-12.1028
▁valentin	-12.1028
▁battery	-12.1028
▁temple	-12.1028
▁zumo	-12.1028
▁colón	-12.1028
▁expresión	-12.1028
▁agenda	-12.1028
▁zero	-12.1028
▁sonrieron	-12.1028
▁aliviado	-12.1028
▁necessity	-12.1028
▁bañera	-12.1028
▁pecho	-12.1028
▁túnel	-12.1028
▁cabaña	-12.1029
▁grecia	-12.1029
▁sorprendida	-12.1029
▁construyeron	-12.1029
▁comiera	-12.1029
▁supiste	-12.1029
▁descubrí	-12.1029
▁swimmer	-12.1029
▁canasta	-12.1029
▁creature	-12.1029
▁rompí	-12.1029
▁encontraba	-12.1029
▁aviso	-12.1029
▁reconozco	-12.1029
▁fluido	-12.1029
▁tropical	-12.1029
▁cocinera	-12.1029
▁generation	-12.1029
▁complicada	-12.1029
▁whispered	-12.1029
▁housework	-12.1029
▁backyard	-12.1029
▁cavando	-12.1029
▁dining	-12.1029
▁deportivo	-12.1029
▁pearl	-12.1029
▁numerosa	-12.1029
▁florero	-12.1029
▁freezing	-12.1029
▁poderoso	-12.1029
▁descuento	-12.1029
▁ministro	-12.1029
▁respiración	-12.103
▁relajarme	-12.103
▁pura	-12.103
▁confiado	-12.103
▁inherit	-12.103
▁atropellado	-12.103
▁aplaudió	-12.103
▁soltó	-12.103
▁ladrando	-12.1031
▁exploded	-12.1031
▁baking	-12.1031
▁panic	-12.1031
▁sentarnos	-12.1031
▁impresionante	-12.1031
▁pantalla	-12.1031
▁vidrio	-12.1031
▁arriesgado	-12.1031
▁texas	-12.1031
▁joyas	-12.1031
▁invest	-12.1031
▁despidieron	-12.1031
▁disculparme	-12.1031
▁rendirse	-12.1032
▁divirtió	-12.1032
▁proposed	-12.1032
▁arranged	-12.1032
▁impos	-12.1032
▁wow	-12.1032
▁pronunciar	-12.1032
▁nacier	-12.1032
▁háblame	-12.1033
▁bajé	-12.1033
▁directly	-12.1033
▁conditioner	-12.1033
▁aceptable	-12.1034
▁atajo	-12.1034
▁personaje	-12.1035
▁justice	-12.1036
▁declaración	-12.1036
▁horno	-12.1036
▁careless	-12.1037
▁volviste	-12.1037
▁praised	-12.1037
▁severe	-12.1038
▁regularly	-12.1038
▁chased	-12.1038
▁trade	-12.1039
▁trace	-12.1039
▁carrots	-12.1039
▁discutimos	-12.1039
▁realizó	-12.104
▁acostarme	-12.1041
▁contenido	-12.1041
▁volunteered	-12.1041
▁cancelado	-12.1042
▁aprendemos	-12.1042
▁entrado	-12.1042
▁waved	-12.1042
▁novelista	-12.1043
▁situa	-12.1043
▁póngase	-12.1043
▁click	-12.1044
▁folded	-12.1044
▁yelled	-12.1044
▁nave	-12.1045
▁distracted	-12.1046
▁servirá	-12.1046
▁settled	-12.1047
▁circunstancias	-12.1048
▁jewels	-12.1048
▁kilograms	-12.1048
▁zanahorias	-12.1048
▁fritas	-12.1048
▁suministros	-12.1048
▁coughing	-12.1049
▁mango	-12.1049
▁traduce	-12.1051
▁boiled	-12.1051
▁matches	-12.1051
▁decorate	-12.1052
▁fortunate	-12.1052
▁brilla	-12.1053
▁ordené	-12.1053
▁quemé	-12.1054
▁sinking	-12.1055
van	-12.1055
▁fold	-12.1056
▁insultó	-12.1059
▁aclarar	-12.1059
▁preguntaré	-12.106
▁pounds	-12.1061
▁besara	-12.1062
▁dejando	-12.1063
▁ruinas	-12.1064
▁ruidosa	-12.1067
▁relacion	-12.1068
▁posiblemente	-12.1068
▁puertas	-12.1069
▁borrachos	-12.1071
▁polish	-12.1071
▁leftovers	-12.1074
▁resfriar	-12.1076
fe	-12.1077
ki	-12.1078
▁ratas	-12.1078
▁coca	-12.1079
▁safely	-12.1079
▁lleguemos	-12.1079
▁escucharlo	-12.1081
nna	-12.1081
▁landed	-12.1082
pon	-12.1084
▁estante	-12.1084
▁pastillas	-12.1088
▁palma	-12.1091
done	-12.1096
▁lightly	-12.1097
ant	-12.1098
▁aid	-12.1099
▁oíste	-12.11
▁celebra	-12.1101
▁shortly	-12.1102
▁vegetarianos	-12.1102
▁pluck	-12.1103
▁postal	-12.1107
▁mina	-12.1112
▁sudor	-12.1113
▁brakes	-12.1113
▁británicos	-12.1113
▁subí	-12.1117
▁finales	-12.1119
▁escase	-12.1123
▁stirr	-12.1124
▁protesta	-12.1125
▁unido	-12.113
▁veremos	-12.1133
▁asco	-12.1134
▁bee	-12.1136
▁pron	-12.1143
▁notes	-12.1146
▁spiders	-12.1153
▁teenagers	-12.1153
▁vegetarians	-12.1153
▁confi	-12.1158
▁manténga	-12.1159
▁sentences	-12.1159
▁include	-12.1165
▁shows	-12.117
▁messages	-12.1173
▁tricks	-12.1178
▁empezará	-12.118
ense	-12.1182
▁quedarás	-12.1183
▁llevarlo	-12.1187
▁apesta	-12.1189
yeron	-12.1191
▁sab	-12.1192
▁seco	-12.1195
▁pacientes	-12.1199
▁constante	-12.12
▁honesta	-12.1204
▁sincere	-12.1205
▁liberar	-12.1207
▁indicar	-12.1207
▁cepillar	-12.1214
▁conozcas	-12.1219
▁pot	-12.1226
▁leads	-12.1228
▁arañas	-12.1234
ju	-12.1237
▁felicit	-12.1238
▁hazme	-12.1258
▁rats	-12.1258
▁customs	-12.1258
ika	-12.1261
▁discuta	-12.1274
▁fingí	-12.1275
▁ge	-12.1278
▁dejase	-12.1278
▁provoc	-12.1284
▁celebrar	-12.1285
▁damas	-12.1286
▁médicos	-12.1289
▁pel	-12.1297
▁cherr	-12.1297
▁ponen	-12.1319
▁inusual	-12.1325
gas	-12.1327
▁casamos	-12.1328
cel	-12.1328
▁doctores	-12.1335
aga	-12.1341
dad	-12.1343
spite	-12.1351
▁lessons	-12.1351
▁temor	-12.1376
▁hábitos	-12.1378
▁funcionan	-12.138
can	-12.1384
▁dejará	-12.1391
▁mist	-12.1395
▁meetings	-12.1396
▁corr	-12.1397
▁ladrar	-12.1402
▁convenc	-12.1404
arle	-12.1414
ísima	-12.1423
▁canto	-12.1428
sigues	-12.1428
▁criar	-12.1429
▁diseases	-12.1432
▁deberá	-12.1442
▁hombros	-12.1445
▁complains	-12.145
▁grita	-12.1455
▁interfere	-12.1464
▁abras	-12.147
rg	-12.1476
▁alert	-12.1479
▁basa	-12.1493
▁equivoca	-12.1495
▁terremotos	-12.1499
tivo	-12.15
ak	-12.1511
▁vendrás	-12.1524
▁enseñ	-12.1525
▁earthquakes	-12.154
▁lograr	-12.1543
▁sl	-12.1556
▁acompañ	-12.1557
▁interfer	-12.1561
▁arrastr	-12.1573
▁bas	-12.1577
▁corn	-12.1579
zed	-12.158
▁soltar	-12.1584
▁rumors	-12.1592
ponlo	-12.1618
▁suyos	-12.1621
▁políticas	-12.1635
▁resolv	-12.1637
ring	-12.1646
ssed	-12.166
▁hipo	-12.1674
▁pagan	-12.1675
▁groups	-12.1676
▁crea	-12.1679
▁incluye	-12.1686
▁revisa	-12.1698
▁soñado	-12.1701
▁1,000	-12.1702
▁satisfechos	-12.1703
berg	-12.1705
▁verdaderos	-12.1717
▁desat	-12.1717
illas	-12.1728
▁entrega	-12.1729
▁bolígrafos	-12.1731
▁bon	-12.1733
▁cortas	-12.1734
rry	-12.1734
▁comprendi	-12.1746
▁junta	-12.1751
▁bur	-12.1753
ui	-12.1755
for	-12.1759
▁enfada	-12.1764
▁apoya	-12.1765
▁breaks	-12.1766
debido	-12.1774
▁desperdicia	-12.1795
cree	-12.1807
▁grupos	-12.1813
stó	-12.1822
▁quedas	-12.1822
cas	-12.1824
▁pinturas	-12.1827
▁esperanzas	-12.1827
ches	-12.1843
▁unió	-12.1843
▁produ	-12.1844
▁fracasar	-12.1846
▁cru	-12.1846
cal	-12.1855
▁compensa	-12.1861
▁gum	-12.1865
▁bra	-12.1868
▁dig	-12.1869
▁retire	-12.187
▁wrap	-12.187
▁flecha	-12.1881
▁vegetarian	-12.1882
day	-12.1884
▁ensayo	-12.1884
▁vitamin	-12.1884
▁navideña	-12.1885
▁score	-12.1885
▁effect	-12.1887
▁oveja	-12.1887
▁camello	-12.189
▁monkey	-12.1891
▁beginner	-12.1892
▁casé	-12.1892
▁separado	-12.1892
▁spider	-12.1893
▁teenager	-12.1893
▁ballena	-12.1893
▁engineer	-12.1893
▁adolescente	-12.1894
▁limit	-12.1897
▁vitamina	-12.1902
▁zapato	-12.1903
ster	-12.1905
preferirías	-12.1906
▁sobra	-12.1908
▁warning	-12.1912
▁sana	-12.1915
▁captur	-12.1924
▁horn	-12.1926
▁estima	-12.193
illo	-12.1934
tendrás	-12.1938
tled	-12.1939
sion	-12.1944
▁industria	-12.1944
ating	-12.1946
nged	-12.1947
▁bloque	-12.195
entendiste	-12.1973
pressed	-12.1978
▁largos	-12.1978
encontraste	-12.1979
cerró	-12.198
querría	-12.198
nunca	-12.198
siempre	-12.198
quisiera	-12.198
thank	-12.198
quiero	-12.198
dijo	-12.1988
▁podr	-12.1992
▁hablarte	-12.1992
▁driven	-12.1997
▁marte	-12.2001
ció	-12.2002
▁verlos	-12.2004
▁mc	-12.2006
▁guarantee	-12.2011
land	-12.2013
▁shave	-12.2013
▁congratulate	-12.2013
▁dye	-12.2013
▁fro	-12.2013
▁identif	-12.2014
ártelo	-12.2015
▁rechazar	-12.2015
▁chain	-12.2015
▁reserve	-12.2015
▁focus	-12.2015
▁reveal	-12.2016
stico	-12.2016
▁jugado	-12.2018
▁ascenso	-12.2019
▁superfici	-12.2021
▁nacional	-12.2021
▁assemble	-12.2021
rió	-12.2021
▁app	-12.2022
itas	-12.2025
▁hábil	-12.2025
▁tímida	-12.2025
▁measure	-12.2027
▁compose	-12.2027
▁spy	-12.2027
▁natal	-12.2028
▁indulge	-12.2028
▁occur	-12.2028
▁minister	-12.2028
ustria	-12.2028
▁acumul	-12.2028
▁aficionado	-12.2028
▁agresivo	-12.2028
▁alivio	-12.2028
▁almacén	-12.2028
▁amateur	-12.2028
▁architect	-12.2028
▁argentina	-12.2028
▁arquitecto	-12.2028
▁asqueroso	-12.2028
▁attorney	-12.2028
▁barefoot	-12.2028
▁blog	-12.2028
▁bloom	-12.2028
▁brazilian	-12.2028
▁buzón	-12.2028
▁cariño	-12.2028
▁castaño	-12.2028
▁catholic	-12.2028
▁century	-12.2028
▁ceremony	-12.2028
▁champion	-12.2028
▁chemical	-12.2028
▁chopin	-12.2028
▁cicatriz	-12.2028
▁closing	-12.2028
▁commercial	-12.2028
▁conocida	-12.2028
▁curioso	-12.2028
▁darwin	-12.2028
▁declared	-12.2028
▁desafortunado	-12.2028
▁desafío	-12.2028
▁dismissed	-12.2028
▁disney	-12.2028
▁encienda	-12.2028
▁engagement	-12.2028
▁envidia	-12.2028
▁envidio	-12.2028
▁estacionamiento	-12.2028
▁etiqueta	-12.2028
▁female	-12.2028
▁filosofía	-12.2028
▁fotógrafo	-12.2028
▁gambling	-12.2028
▁generoso	-12.2028
▁globo	-12.2028
▁grandparents	-12.2028
▁hurricane	-12.2028
▁improving	-12.2028
▁inteligencia	-12.2028
▁interview	-12.2028
▁kanji	-12.2028
▁kitten	-12.2028
▁laguna	-12.2028
▁laundry	-12.2028
▁magnífica	-12.2028
▁malgaste	-12.2028
▁mischievous	-12.2028
▁monroe	-12.2028
▁niñito	-12.2028
▁november	-12.2028
▁okinawa	-12.2028
▁omelet	-12.2028
▁opponent	-12.2028
▁overcoat	-12.2028
▁oysters	-12.2028
▁pacific	-12.2028
▁plástico	-12.2028
▁rastro	-12.2028
▁refund	-12.2028
▁reproductor	-12.2028
▁response	-12.2028
▁revolution	-12.2028
▁sapporo	-12.2028
▁semestre	-12.2028
▁shinjuku	-12.2028
▁starving	-12.2028
▁tattoo	-12.2028
▁thunder	-12.2028
▁tractor	-12.2028
▁translator	-12.2028
▁travieso	-12.2028
▁unmarried	-12.2028
▁whining	-12.2028
▁worries	-12.2028
▁zealand	-12.2028
▁zelanda	-12.2028
▁alternative	-12.2028
▁august	-12.2028
▁locura	-12.2028
▁napole	-12.2028
▁niego	-12.2028
▁shade	-12.2028
▁plazo	-12.2028
▁promoted	-12.2028
▁splash	-12.2028
▁broad	-12.2028
▁contagious	-12.2028
▁escríbeme	-12.2028
▁hágame	-12.2028
▁identical	-12.2028
▁paranoico	-12.2028
▁camarero	-12.2028
▁entrevista	-12.2028
▁fluidez	-12.2028
▁identidad	-12.2028
▁receta	-12.2028
▁templo	-12.2028
▁abriera	-12.2028
▁claridad	-12.2028
▁excursión	-12.2028
▁paranoid	-12.2028
▁admission	-12.2028
▁plaza	-12.2028
▁biwa	-12.2028
▁trial	-12.2028
▁typewriter	-12.2028
▁recipe	-12.2028
▁slavery	-12.2028
babies	-12.2028
▁equipment	-12.2028
▁gorra	-12.2028
▁grandpa	-12.2028
▁performance	-12.2028
▁fax	-12.2028
▁strawberries	-12.2028
▁mailbox	-12.2028
▁malgasta	-12.2028
▁entendieron	-12.2028
▁western	-12.2028
▁asocia	-12.2028
▁mentirosa	-12.2028
▁rabia	-12.2028
▁cubo	-12.2028
▁software	-12.2028
▁combine	-12.2028
▁espada	-12.2028
▁espía	-12.2028
▁relief	-12.2028
▁defendant	-12.2028
▁pruébate	-12.2028
▁sympathy	-12.2028
▁merezco	-12.2029
▁nevada	-12.2029
▁engordado	-12.2029
▁sintieron	-12.2029
▁liberty	-12.2029
▁flush	-12.2029
▁sufriendo	-12.2029
▁assist	-12.2029
▁fascinated	-12.2029
▁mask	-12.2029
▁tumor	-12.2029
▁huir	-12.2029
▁privada	-12.2029
▁majority	-12.2029
▁billion	-12.2029
▁sediento	-12.2029
▁expression	-12.2029
▁déjanos	-12.2029
▁simply	-12.2029
▁surgeon	-12.2029
▁pub	-12.2029
▁campus	-12.2029
▁factura	-12.2029
▁diploma	-12.2029
▁ladies	-12.2029
▁siéntese	-12.2029
▁estudie	-12.2029
▁crew	-12.2029
▁shovel	-12.2029
▁onions	-12.2029
▁genuine	-12.2029
▁sentencia	-12.2029
▁agrado	-12.2029
▁venture	-12.2029
▁obligación	-12.2029
▁humiliated	-12.2029
▁venganza	-12.2029
▁sostenía	-12.2029
▁reluctantly	-12.2029
▁chatting	-12.203
▁existencia	-12.203
▁curry	-12.203
▁frequently	-12.203
▁marina	-12.203
▁personalidad	-12.203
▁applauded	-12.203
tazo	-12.203
▁eché	-12.203
▁sentémonos	-12.203
▁turquía	-12.2031
▁quejar	-12.2031
▁terrified	-12.2031
▁observó	-12.2031
▁adquir	-12.2031
▁balloon	-12.2031
▁sobrevivieron	-12.2031
▁tirado	-12.2031
▁photographer	-12.2031
▁apresúrate	-12.2031
▁cállate	-12.2031
▁sixteen	-12.2031
▁discovery	-12.2031
▁grites	-12.2031
▁symbol	-12.2031
▁chest	-12.2032
▁portuguese	-12.2032
▁asustó	-12.2032
▁roy	-12.2032
▁pico	-12.2032
▁observe	-12.2032
▁ordenada	-12.2032
▁tomatoes	-12.2033
▁wandered	-12.2033
▁hook	-12.2033
▁perdonado	-12.2033
▁severely	-12.2033
▁gallo	-12.2034
▁preguntes	-12.2034
▁cuidadosa	-12.2034
▁mudarse	-12.2034
▁parezca	-12.2034
▁pegado	-12.2034
▁approaching	-12.2034
▁entendemos	-12.2034
▁nevará	-12.2034
▁connected	-12.2034
▁suavemente	-12.2035
▁entusiasmado	-12.2035
▁olla	-12.2035
▁sintiendo	-12.2035
▁familiarizado	-12.2035
▁sentate	-12.2036
▁ocurrirá	-12.2036
▁giró	-12.2036
▁impacto	-12.2036
▁tortured	-12.2036
▁animó	-12.2036
▁turtles	-12.2036
▁muerde	-12.2036
▁pintando	-12.2036
▁gradual	-12.2037
▁tiza	-12.2037
▁occupied	-12.2037
▁invitaste	-12.2038
▁muchísima	-12.2038
▁recado	-12.2038
▁offended	-12.2038
▁contributed	-12.2039
▁atravesar	-12.204
▁gano	-12.204
▁angeles	-12.2041
▁revealed	-12.2041
▁struggled	-12.2041
▁traditional	-12.2041
▁habilidades	-12.2041
▁leyera	-12.2042
▁utter	-12.2042
▁chewing	-12.2043
▁fracasó	-12.2043
▁escaparon	-12.2043
▁adventure	-12.2043
▁negotiate	-12.2044
▁shaved	-12.2044
▁created	-12.2044
▁molestarte	-12.2044
▁despedirme	-12.2045
▁slightly	-12.2045
▁señales	-12.2045
▁hopeless	-12.2046
▁pidiera	-12.2046
▁risky	-12.2046
▁tightly	-12.2047
▁demora	-12.2047
▁lastimarte	-12.2047
▁section	-12.2047
▁rellenar	-12.2048
▁adivinar	-12.2048
▁cenó	-12.205
▁jesus	-12.205
▁tortugas	-12.205
▁dí	-12.2051
▁acordarme	-12.2051
ham	-12.2053
▁interrupting	-12.2053
▁rompa	-12.2054
▁registro	-12.2054
▁hesitated	-12.2054
▁dinos	-12.2055
▁explicaré	-12.2058
▁útiles	-12.2059
▁theirs	-12.206
▁preguntarme	-12.2062
▁comparte	-12.2064
▁acerques	-12.2065
▁marco	-12.2065
▁tank	-12.2066
▁desmayar	-12.2066
▁necesité	-12.2066
▁ignor	-12.2066
▁considerada	-12.2066
▁culparte	-12.2069
▁acceptable	-12.2069
▁ordenadores	-12.2071
▁correctly	-12.2072
▁prender	-12.2076
▁agente	-12.2077
▁abrazar	-12.2077
▁pino	-12.2078
▁consequences	-12.2079
▁parks	-12.208
car	-12.2081
▁arrestó	-12.2084
▁georg	-12.2084
▁dilo	-12.2084
▁completed	-12.209
▁reca	-12.209
▁frutos	-12.2094
▁capa	-12.2096
▁fuertemente	-12.2097
▁atrev	-12.2098
▁cantado	-12.2098
▁corría	-12.2101
▁corredor	-12.2103
▁eligier	-12.2107
▁mejorado	-12.2108
▁huesos	-12.2108
▁frenos	-12.2111
▁arruinar	-12.2112
▁respected	-12.2113
▁planeaba	-12.2117
▁matarte	-12.2118
▁muevas	-12.2122
▁huellas	-12.2123
▁remarks	-12.2123
rain	-12.2124
▁uniforms	-12.2125
▁mueren	-12.2125
rk	-12.2127
▁nicer	-12.2127
▁discute	-12.213
▁delete	-12.2133
▁encantaba	-12.2134
▁pizzas	-12.2135
▁apuros	-12.2137
▁hablaste	-12.2147
uela	-12.2148
▁insulto	-12.2151
▁affairs	-12.2152
▁pensás	-12.2153
▁laws	-12.2154
▁buscado	-12.2157
▁colgar	-12.2158
▁doors	-12.2161
▁acuest	-12.2165
▁smiles	-12.2166
▁beginners	-12.2166
▁separados	-12.2166
▁manga	-12.2167
▁owed	-12.2171
▁coman	-12.2175
▁equivocas	-12.2177
▁catching	-12.2178
▁aguarda	-12.2187
▁amamos	-12.2196
▁robots	-12.2196
▁nu	-12.2198
ors	-12.2198
▁relatives	-12.2202
▁rayos	-12.221
ncé	-12.2217
telo	-12.2224
▁telephoned	-12.2233
wa	-12.2237
▁cambies	-12.2239
▁delito	-12.224
are	-12.2243
▁adopta	-12.2243
▁duermen	-12.2252
aking	-12.2255
▁drain	-12.2258
▁visito	-12.2258
▁transfer	-12.2263
▁esperad	-12.2264
▁sneeze	-12.2269
tica	-12.2273
ger	-12.2278
▁traslad	-12.2279
▁guarde	-12.2287
▁policías	-12.2288
▁divorciar	-12.229
▁opinions	-12.2293
▁ways	-12.2304
▁imagina	-12.2305
▁pedía	-12.2307
▁mejillas	-12.2313
▁deudas	-12.2313
▁twist	-12.2322
▁directions	-12.2328
adora	-12.2339
ments	-12.2341
▁pararon	-12.2342
▁escalado	-12.2342
▁cheeks	-12.2373
▁empeora	-12.2376
▁seconds	-12.2378
▁hablaron	-12.2383
▁oculta	-12.2385
▁cerdos	-12.2388
▁ignora	-12.2396
▁taxis	-12.2399
▁oídos	-12.2406
▁sow	-12.2418
▁caros	-12.2454
iéramos	-12.2456
▁billetes	-12.2477
zca	-12.2477
▁verse	-12.248
▁volvía	-12.2485
▁servicios	-12.2492
▁estúpidos	-12.2494
▁rat	-12.2495
▁loses	-12.2496
▁ventas	-12.2508
▁celebr	-12.2511
ador	-12.2514
arlo	-12.252
▁event	-12.2536
▁encogió	-12.2537
▁derrota	-12.2539
▁reforma	-12.2551
▁objetivos	-12.2552
▁entren	-12.2558
▁shirts	-12.2566
▁absorb	-12.2569
▁curar	-12.2571
▁vacías	-12.2582
▁cer	-12.2584
▁oscurecie	-12.259
▁conserva	-12.2607
ie	-12.2609
▁conduces	-12.2612
shed	-12.2623
▁exprimi	-12.2626
▁acts	-12.2634
▁aprenda	-12.2637
▁sweets	-12.2641
▁stifle	-12.2648
▁estudiara	-12.2656
▁dividi	-12.2663
cuidará	-12.2665
▁vet	-12.2688
hanging	-12.269
▁fiestas	-12.2692
nme	-12.2694
▁sigues	-12.2704
eth	-12.2712
▁hab	-12.2715
▁critic	-12.2717
▁bodas	-12.2719
▁líneas	-12.2734
▁incendios	-12.2765
▁agarra	-12.2776
▁notable	-12.2776
10,000	-12.2787
▁equivocados	-12.2803
fic	-12.2818
▁sue	-12.2818
dicated	-12.2819
osa	-12.2849
▁modera	-12.2858
▁travels	-12.2858
▁triunf	-12.2865
arios	-12.2868
▁orbit	-12.288
hoy	-12.2884
proxima	-12.2911
dores	-12.2911
ny	-12.2915
ándolo	-12.292
▁ci	-12.2928
▁aburre	-12.2945
▁cur	-12.2947
eando	-12.2948
▁escuche	-12.2954
conoce	-12.2959
▁respects	-12.2968
tendió	-12.2973
read	-12.2974
▁conclusion	-12.2984
▁neumático	-12.2992
▁paisaje	-12.2992
▁nieto	-12.2992
▁postul	-12.2996
▁inglesa	-12.2996
▁candidato	-12.2996
▁mosca	-12.2996
▁ingeniero	-12.2998
▁vehículo	-12.2998
▁abeja	-12.3
▁víctima	-12.3001
▁affair	-12.3003
todo	-12.3004
▁plátano	-12.3004
▁cloud	-12.3004
▁pierda	-12.3006
▁supplie	-12.3006
▁degree	-12.3007
▁ingreso	-12.3007
▁customer	-12.3008
▁vegetable	-12.3009
▁z	-12.3011
▁grade	-12.3017
▁element	-12.3018
▁elbow	-12.3021
ders	-12.3024
▁cepilla	-12.3027
▁diente	-12.3035
liz	-12.3035
▁aterriz	-12.3044
▁má	-12.3046
▁nervios	-12.3047
▁incorrect	-12.3048
▁trueno	-12.3048
▁relativ	-12.3063
▁australian	-12.3072
resisti	-12.3073
▁agr	-12.3073
▁crow	-12.3079
▁traig	-12.3085
▁toast	-12.3088
▁fuel	-12.3089
entonces	-12.3091
▁pague	-12.3095
made	-12.3097
plica	-12.3099
buen	-12.3099
entiendes	-12.3099
estudias	-12.31
fue	-12.31
▁item	-12.3101
▁cared	-12.3101
cola	-12.3101
may	-12.3102
▁camel	-12.3103
▁leas	-12.3103
▁hablará	-12.3104
▁rebel	-12.3105
seguimos	-12.3112
▁horizon	-12.3117
▁afecta	-12.3117
▁asegura	-12.3119
▁empe	-12.3119
▁enti	-12.3122
▁recover	-12.3124
▁maní	-12.3124
▁detén	-12.3124
▁confuse	-12.3126
▁swallow	-12.3126
▁discover	-12.3128
▁impact	-12.3129
▁prohíb	-12.313
▁valid	-12.3131
▁comunicar	-12.3131
▁moments	-12.3131
▁fabrica	-12.3132
▁branch	-12.3132
▁artificial	-12.3133
▁hog	-12.3133
▁unfortunate	-12.3135
▁immediate	-12.3135
▁mastica	-12.3136
árselo	-12.3137
▁threat	-12.3137
▁carbon	-12.3138
▁cigar	-12.3138
▁averig	-12.3138
▁inclina	-12.3139
▁pulse	-12.3139
▁process	-12.3139
▁proverb	-12.3139
▁cuelg	-12.3139
▁compliment	-12.3139
▁statistic	-12.3139
▁afterwards	-12.3139
▁amistoso	-12.3139
▁appeal	-12.3139
▁aprobación	-12.3139
▁asignatura	-12.3139
▁atómica	-12.3139
▁autobuses	-12.3139
▁awkward	-12.3139
▁baboon	-12.3139
▁bancarrota	-12.3139
▁berlín	-12.3139
▁cajero	-12.3139
▁campamento	-12.3139
▁carácter	-12.3139
▁cerezo	-12.3139
▁chimney	-12.3139
▁cliff	-12.3139
▁clumsy	-12.3139
▁comunicación	-12.3139
▁concierne	-12.3139
▁demonio	-12.3139
▁desconozco	-12.3139
▁destination	-12.3139
▁dumped	-12.3139
▁elderly	-12.3139
▁equilibrio	-12.3139
▁erigi	-12.3139
▁escándalo	-12.3139
▁espagueti	-12.3139
▁estadística	-12.3139
▁exaggerate	-12.3139
▁expose	-12.3139
▁extent	-12.3139
▁feroz	-12.3139
▁flauta	-12.3139
▁garlic	-12.3139
▁gossip	-12.3139
▁grammatical	-12.3139
▁hangover	-12.3139
▁idéntico	-12.3139
▁incumbe	-12.3139
▁injusta	-12.3139
▁insensitive	-12.3139
▁intelligence	-12.3139
▁intervened	-12.3139
▁journey	-12.3139
▁kyushu	-12.3139
▁maletín	-12.3139
▁malvado	-12.3139
▁maquillaje	-12.3139
▁misunderstood	-12.3139
▁mysterious	-12.3139
▁negative	-12.3139
▁nephew	-12.3139
▁niñez	-12.3139
▁ostras	-12.3139
▁overweight	-12.3139
▁peluquería	-12.3139
▁physical	-12.3139
▁platform	-12.3139
▁pollution	-12.3139
▁postcard	-12.3139
▁privacy	-12.3139
▁propina	-12.3139
▁prosper	-12.3139
▁pruebe	-12.3139
▁práctico	-12.3139
▁pulso	-12.3139
▁póquer	-12.3139
▁quebró	-12.3139
▁resaca	-12.3139
▁satisfactory	-12.3139
▁seatbelt	-12.3139
▁shadow	-12.3139
▁siblings	-12.3139
▁sobrino	-12.3139
▁solitario	-12.3139
▁spinach	-12.3139
▁suegra	-12.3139
▁swept	-12.3139
▁símbolo	-12.3139
▁thieves	-12.3139
▁translating	-12.3139
▁tropas	-12.3139
▁universitaria	-12.3139
▁votó	-12.3139
▁válido	-12.3139
▁workaholic	-12.3139
▁agricultura	-12.3139
▁aviones	-12.3139
▁cease	-12.3139
▁confesar	-12.3139
▁conservative	-12.3139
▁elegí	-12.3139
▁hierve	-12.3139
▁pareciera	-12.3139
▁pediste	-12.3139
▁sneak	-12.3139
▁tobillo	-12.3139
▁biology	-12.3139
▁biología	-12.3139
▁cinta	-12.3139
▁manteca	-12.3139
▁parecida	-12.3139
▁profundidad	-12.3139
▁revolución	-12.3139
▁shortcut	-12.3139
▁ankle	-12.3139
▁bride	-12.3139
▁patético	-12.3139
▁cerradura	-12.3139
▁crítica	-12.3139
▁toothache	-12.3139
▁muriera	-12.3139
▁pateó	-12.3139
▁democratic	-12.3139
▁diversión	-12.3139
▁eternidad	-12.3139
▁kingdom	-12.3139
▁qualified	-12.3139
▁semester	-12.3139
firiendo	-12.3139
▁intervino	-12.3139
▁thread	-12.3139
▁heaven	-12.3139
▁organization	-12.3139
▁bunk	-12.3139
▁clapped	-12.3139
▁melted	-12.314
▁profit	-12.314
▁yawn	-12.314
▁cayeron	-12.314
▁organización	-12.314
▁mentiste	-12.314
▁guitarist	-12.314
▁perrito	-12.314
▁unsure	-12.314
▁philosophy	-12.314
▁snore	-12.314
▁volcán	-12.314
▁banjo	-12.314
▁loyal	-12.314
▁llévate	-12.314
▁generación	-12.314
▁desesperado	-12.314
▁beef	-12.314
▁cueste	-12.314
▁seafood	-12.314
ogen	-12.314
▁direcciones	-12.314
▁respondido	-12.314
▁perdóname	-12.314
▁lloro	-12.314
▁shaking	-12.314
▁recibe	-12.314
▁corregi	-12.314
▁abrazó	-12.314
▁download	-12.314
▁gentle	-12.314
▁heavier	-12.314
▁colgando	-12.314
▁esquiando	-12.314
▁atleta	-12.314
▁hiking	-12.314
▁baje	-12.314
▁roca	-12.314
▁devastated	-12.314
▁redacción	-12.314
▁numero	-12.314
▁descubrimiento	-12.314
▁dolía	-12.314
▁puro	-12.314
▁permitted	-12.314
▁cattle	-12.314
▁dibujó	-12.314
▁depriv	-12.314
▁recto	-12.3141
▁obligation	-12.3141
▁statement	-12.3141
▁mojada	-12.3141
▁esencial	-12.3141
▁conducido	-12.3141
▁meditando	-12.3141
▁azar	-12.3141
▁interese	-12.3141
▁conclusión	-12.3141
▁trasero	-12.3141
▁doloroso	-12.3141
▁accidentally	-12.3141
▁temblaba	-12.3141
▁amarga	-12.3142
▁seventy	-12.3142
▁stingy	-12.3142
▁realista	-12.3142
▁tercio	-12.3142
▁disgustado	-12.3142
▁hometown	-12.3142
▁consideration	-12.3142
▁revelar	-12.3142
▁rapidly	-12.3142
▁gritando	-12.3142
▁levántate	-12.3142
▁sacaste	-12.3142
▁doubtful	-12.3142
▁fiable	-12.3142
▁aferr	-12.3143
▁disculparse	-12.3143
▁capturado	-12.3143
▁costoso	-12.3143
▁choque	-12.3143
▁blank	-12.3143
▁ilusión	-12.3143
▁cirujano	-12.3143
▁continúe	-12.3143
▁jesús	-12.3143
▁cachorro	-12.3143
▁manual	-12.3143
▁ahogarse	-12.3143
▁hervir	-12.3143
▁patada	-12.3143
▁descalzo	-12.3144
▁calentador	-12.3144
▁afilado	-12.3144
▁darkness	-12.3144
▁defensa	-12.3144
▁melod	-12.3144
▁established	-12.3145
▁atasco	-12.3145
▁tumbado	-12.3145
▁slower	-12.3145
▁qu	-12.3145
▁comprando	-12.3146
▁bombarde	-12.3146
▁wealthy	-12.3146
▁mortal	-12.3147
▁taxista	-12.3147
▁regañó	-12.3147
▁regularmente	-12.3147
▁matando	-12.3147
▁derrotado	-12.3147
▁divertirse	-12.3147
▁former	-12.3148
▁misled	-12.3148
▁deprisa	-12.3148
▁fíj	-12.3149
▁niega	-12.3149
▁pole	-12.3149
▁objection	-12.3149
▁carbono	-12.3149
▁arreglado	-12.3149
▁horizonte	-12.3149
▁amused	-12.315
▁alejado	-12.315
▁load	-12.315
▁culparía	-12.315
▁regresará	-12.315
▁apagado	-12.315
▁stunning	-12.315
▁spoiled	-12.3151
▁ahogó	-12.3151
▁lavado	-12.3153
▁mow	-12.3153
▁parecé	-12.3153
▁dibujar	-12.3154
▁limited	-12.3154
▁politely	-12.3154
▁associate	-12.3155
▁besaron	-12.3155
▁confirmed	-12.3155
▁delivered	-12.3155
▁desire	-12.3155
▁apagaron	-12.3155
▁devolveré	-12.3156
▁guardado	-12.3156
▁levantaron	-12.3156
▁sorbo	-12.3156
▁alegrará	-12.3156
▁enseñado	-12.3157
▁buscamos	-12.3157
▁invita	-12.3157
▁perform	-12.3157
▁clon	-12.3157
▁brillaba	-12.3158
▁youngest	-12.3159
▁soportarlo	-12.3159
cimiento	-12.316
▁disgusted	-12.316
▁pese	-12.316
▁necesitás	-12.3161
▁criminales	-12.3161
▁celosa	-12.3161
▁blowing	-12.3162
▁filete	-12.3163
▁rendir	-12.3163
▁colgado	-12.3164
▁refieres	-12.3164
▁patatas	-12.3164
▁asiáticos	-12.3164
▁regrets	-12.3164
▁considerable	-12.3167
▁sec	-12.3167
▁conseguimos	-12.3167
▁portón	-12.3167
▁vía	-12.3168
recieron	-12.3168
▁satisfactoria	-12.3168
▁culpando	-12.3169
▁posibilidades	-12.317
clined	-12.317
▁atrae	-12.317
▁referr	-12.3171
▁mago	-12.3171
▁examined	-12.3172
▁athlete	-12.3172
▁principales	-12.3173
▁behaved	-12.3174
▁copies	-12.3176
▁worker	-12.3177
▁criticize	-12.3178
▁exacta	-12.3179
▁señaló	-12.3179
▁marineros	-12.318
▁sailors	-12.318
▁escondidas	-12.3181
▁ruidoso	-12.3181
▁aliviar	-12.3181
▁calmado	-12.3182
▁cerré	-12.3183
▁organized	-12.3184
▁tubo	-12.3184
▁amaré	-12.3185
▁paré	-12.3188
▁interna	-12.3189
▁errónea	-12.3189
▁gire	-12.3189
▁tame	-12.319
▁menores	-12.3191
▁pagaron	-12.3192
▁prestarme	-12.3193
▁responda	-12.3193
▁responded	-12.3196
▁patiently	-12.3196
▁palomas	-12.3197
▁eve	-12.3197
▁interrumpas	-12.3197
▁tooth	-12.3202
▁terminaron	-12.3203
▁nota	-12.3204
▁cruce	-12.3204
▁jueguen	-12.3205
▁cambiaré	-12.3205
▁differently	-12.3206
▁seguiré	-12.3208
▁creerle	-12.3213
enzo	-12.3213
▁mantendrá	-12.3216
▁bebas	-12.3217
▁tool	-12.322
▁permanece	-12.3221
▁discussing	-12.3222
▁distraer	-12.3223
▁meditar	-12.3225
▁aceptaría	-12.3226
omo	-12.3229
▁mag	-12.323
▁mienten	-12.3234
▁mates	-12.3236
▁congelado	-12.3237
▁jugaban	-12.324
▁tenista	-12.3243
▁weeds	-12.3248
▁costear	-12.325
▁landing	-12.3253
▁vision	-12.3256
▁vuelves	-12.3263
▁voices	-12.3264
▁escribirle	-12.3269
▁sip	-12.3273
▁hitch	-12.3286
▁alter	-12.3287
▁visitarte	-12.3293
▁monkeys	-12.3295
▁torn	-12.3298
▁heating	-12.3302
▁decís	-12.3311
▁trucos	-12.3311
▁antiques	-12.3313
▁contentos	-12.3315
▁pork	-12.3316
▁provocar	-12.3316
▁ja	-12.3323
lena	-12.3325
fundió	-12.3325
▁logra	-12.3326
▁sheets	-12.3327
▁ban	-12.3329
▁sacrifice	-12.333
▁weighs	-12.333
▁usamos	-12.333
▁esperen	-12.3335
▁mall	-12.3336
▁dejarme	-12.3349
▁hablen	-12.335
▁sentirá	-12.335
▁indian	-12.335
▁inventar	-12.3354
▁principiantes	-12.3361
▁voluntarios	-12.3362
nada	-12.3367
criado	-12.3367
▁abrirá	-12.3371
▁du	-12.3377
▁sumo	-12.3381
000	-12.3384
▁arresto	-12.3389
▁acos	-12.3397
▁consultar	-12.3401
▁classic	-12.3418
▁oyes	-12.3423
▁partidos	-12.3424
▁fingir	-12.3427
▁doctora	-12.3429
▁cobra	-12.3433
▁ruins	-12.3445
▁recoge	-12.3447
ates	-12.3449
▁cómodos	-12.3452
▁recog	-12.3456
▁gallinas	-12.346
▁medicamentos	-12.346
▁sordos	-12.346
▁cabras	-12.346
▁enamor	-12.3464
▁youth	-12.3475
istic	-12.3476
▁plates	-12.3476
▁demands	-12.3477
▁files	-12.3478
▁freed	-12.3481
▁apresurar	-12.3486
▁ayudamos	-12.3495
▁imports	-12.35
▁harán	-12.3514
▁weekends	-12.352
irió	-12.3524
▁imitate	-12.3527
ison	-12.353
▁tanque	-12.3532
▁alquila	-12.3538
▁tomates	-12.3543
▁infla	-12.3559
ities	-12.3563
▁peligrosos	-12.357
▁criminals	-12.3578
▁masa	-12.3579
▁garantiza	-12.3596
▁represent	-12.3599
cre	-12.36
▁suficientes	-12.3602
▁arregle	-12.3621
▁parara	-12.3625
▁estabais	-12.3626
▁owned	-12.3627
▁boletos	-12.3628
▁ubica	-12.3632
▁vendrías	-12.3632
▁extendi	-12.3633
▁hoyo	-12.3637
tus	-12.3646
portable	-12.3649
▁despiérta	-12.3657
▁intentions	-12.3662
▁cercanos	-12.3671
▁sucedier	-12.3676
▁ésas	-12.3679
▁afortunados	-12.3679
▁remembering	-12.3682
▁wa	-12.3694
▁bienvenidos	-12.3696
▁vari	-12.3701
▁demandar	-12.3702
▁absorbe	-12.3711
▁troubles	-12.3719
ko	-12.3729
melo	-12.3733
▁remembers	-12.374
▁tomate	-12.3741
line	-12.3746
ú	-12.3755
▁costo	-12.3758
cé	-12.376
▁reform	-12.3764
▁cuidadosos	-12.3766
if	-12.3768
▁bro	-12.3769
▁skirts	-12.377
▁copias	-12.3778
▁dormidos	-12.3782
▁muñecas	-12.3798
▁camisas	-12.3815
▁gradua	-12.3818
▁mars	-12.383
▁acusa	-12.3831
term	-12.3836
▁borr	-12.3852
▁mirad	-12.3854
▁bites	-12.3857
▁cas	-12.3869
▁pertene	-12.387
marily	-12.3874
▁arriesg	-12.3877
▁castigar	-12.3885
▁pil	-12.3901
▁idiots	-12.3903
▁pegar	-12.3905
▁aves	-12.3927
▁humans	-12.3943
▁esperas	-12.3944
▁proporcionar	-12.3951
▁recomiend	-12.3957
▁ricas	-12.397
▁limpie	-12.3978
▁reconsider	-12.3985
▁burlar	-12.3996
▁rec	-12.4005
▁frases	-12.4007
▁levantas	-12.4033
▁puntos	-12.4044
▁vibra	-12.4046
▁irás	-12.405
ix	-12.4057
▁urge	-12.4057
▁comprendí	-12.4057
▁aterriza	-12.4057
▁elevado	-12.4069
parked	-12.4074
▁fare	-12.4074
ong	-12.4096
ático	-12.4101
▁reparti	-12.4142
talo	-12.4146
deja	-12.4183
primió	-12.4191
vendrá	-12.4203
▁pela	-12.4223
quis	-12.4228
▁transmit	-12.4232
▁cheer	-12.4232
▁investment	-12.4242
▁oiga	-12.4242
▁arruinado	-12.4244
▁castigado	-12.4245
▁movimiento	-12.4246
▁valioso	-12.4246
▁avance	-12.4246
▁cristiano	-12.4248
▁mascota	-12.4248
▁string	-12.4248
▁blonde	-12.4249
▁distinto	-12.4249
▁christian	-12.425
▁disparo	-12.4251
▁apuro	-12.4253
▁oreja	-12.4257
▁consecuencia	-12.4257
▁wire	-12.4258
▁verdura	-12.4258
▁pista	-12.4258
▁nube	-12.4259
▁impress	-12.4259
rected	-12.4262
▁sock	-12.4265
▁codo	-12.4266
▁invento	-12.4274
▁congela	-12.4274
▁jog	-12.4275
▁pregunt	-12.4276
▁docena	-12.428
omas	-12.4289
▁moderno	-12.4292
espera	-12.43
▁aprovech	-12.4308
▁adelanta	-12.4315
▁reuni	-12.4317
orge	-12.4328
▁magnet	-12.4333
terminaste	-12.4338
confident	-12.434
debo	-12.434
alguno	-12.434
déjame	-12.4341
who	-12.4342
▁agent	-12.4342
pasas	-12.4345
▁creci	-12.4346
▁combina	-12.4347
rro	-12.4348
hola	-12.4348
10.	-12.4348
voy	-12.4352
mbled	-12.4352
▁receiv	-12.4353
▁racist	-12.4361
▁rin	-12.4366
▁annoy	-12.4367
▁agradecer	-12.437
▁concentr	-12.4373
▁deceive	-12.4374
rich	-12.4375
estamos	-12.4376
▁spoil	-12.4377
▁regar	-12.4377
▁offend	-12.4377
▁betray	-12.4377
▁cabin	-12.4378
▁coast	-12.4381
▁modest	-12.4382
▁cazador	-12.4382
▁chaval	-12.4382
▁implica	-12.4383
▁neat	-12.4384
bamos	-12.4384
▁accu	-12.4384
▁gene	-12.4385
▁compani	-12.4385
▁apropiada	-12.4386
▁compete	-12.4387
▁freak	-12.4387
▁numb	-12.4387
▁plena	-12.4387
▁salvado	-12.4388
▁sharpen	-12.4388
oru	-12.4389
▁vietnam	-12.4389
▁inferior	-12.4389
▁knit	-12.4389
▁dinosaur	-12.4389
▁slip	-12.4389
▁react	-12.4389
▁tendenc	-12.4389
▁differ	-12.4389
▁gramatical	-12.4389
▁cadáver	-12.4389
▁impresionar	-12.4389
▁virtud	-12.4389
▁aburrimiento	-12.4389
▁ahorita	-12.4389
▁alemanes	-12.4389
▁almorcé	-12.4389
▁amistosa	-12.4389
▁arbusto	-12.4389
▁arrancó	-12.4389
▁atascado	-12.4389
▁beethoven	-12.4389
▁bikini	-12.4389
▁cafeteria	-12.4389
▁calcetín	-12.4389
▁camiseta	-12.4389
▁cementerio	-12.4389
▁champú	-12.4389
▁chatarra	-12.4389
▁cintura	-12.4389
▁contigu	-12.4389
▁conversando	-12.4389
▁cotton	-12.4389
▁crítico	-12.4389
▁cycling	-12.4389
▁december	-12.4389
▁departure	-12.4389
▁descartar	-12.4389
▁desnuda	-12.4389
▁destruida	-12.4389
▁diciembre	-12.4389
▁diplomática	-12.4389
▁doorknob	-12.4389
▁dutch	-12.4389
▁ecuador	-12.4389
▁einstein	-12.4389
▁enormous	-12.4389
▁esclavitud	-12.4389
▁escuchá	-12.4389
▁exhilarat	-12.4389
▁explotó	-12.4389
▁flies	-12.4389
▁forbidden	-12.4389
▁fractur	-12.4389
▁francamente	-12.4389
▁gloomy	-12.4389
▁guiso	-12.4389
▁haunted	-12.4389
▁hobbies	-12.4389
▁incurable	-12.4389
▁industry	-12.4389
▁irresponsable	-12.4389
▁jarrón	-12.4389
▁jueves	-12.4389
▁juventud	-12.4389
▁lipstick	-12.4389
▁lloré	-12.4389
▁llovía	-12.4389
▁madrid	-12.4389
▁mariposa	-12.4389
▁monedero	-12.4389
▁monster	-12.4389
▁monstruo	-12.4389
▁muelle	-12.4389
▁muñeco	-12.4389
▁nagano	-12.4389
▁nagoya	-12.4389
▁narices	-12.4389
▁naughty	-12.4389
▁negativo	-12.4389
▁neglect	-12.4389
▁nixon	-12.4389
▁niñita	-12.4389
▁nocturno	-12.4389
▁noviembre	-12.4389
▁obama	-12.4389
▁origen	-12.4389
▁peluquero	-12.4389
▁pertenencias	-12.4389
▁pilchas	-12.4389
▁policies	-12.4389
▁probabilidad	-12.4389
▁proceso	-12.4389
▁préstame	-12.4389
▁renuncié	-12.4389
▁repisa	-12.4389
▁repite	-12.4389
▁respetuoso	-12.4389
▁ribbon	-12.4389
▁ridícula	-12.4389
▁rumbo	-12.4389
▁satellite	-12.4389
▁shibuya	-12.4389
▁shinano	-12.4389
▁sidewalk	-12.4389
▁snuggle	-12.4389
▁sobresaliente	-12.4389
▁stroke	-12.4389
▁supply	-12.4389
▁surface	-12.4389
▁tatuaje	-12.4389
▁temporal	-12.4389
▁testamento	-12.4389
▁thursday	-12.4389
▁titanic	-12.4389
▁tobacco	-12.4389
▁tromb	-12.4389
▁tuviese	-12.4389
▁técnica	-12.4389
▁título	-12.4389
▁uneasy	-12.4389
▁unnecessary	-12.4389
▁valiosa	-12.4389
▁vanidoso	-12.4389
▁vaqueros	-12.4389
▁virtue	-12.4389
▁voces	-12.4389
▁wisdom	-12.4389
▁automático	-12.4389
▁blink	-12.4389
▁blunt	-12.4389
▁cacahu	-12.4389
▁context	-12.4389
▁encaja	-12.4389
▁entorno	-12.4389
▁holanda	-12.4389
▁hydr	-12.4389
▁nasty	-12.4389
▁penicil	-12.4389
▁pochoclo	-12.4389
▁sauce	-12.4389
▁sharing	-12.4389
▁shelter	-12.4389
▁sobrina	-12.4389
▁watermelon	-12.4389
▁cántaros	-12.4389
▁repetí	-12.4389
▁sector	-12.4389
▁waist	-12.4389
▁accurate	-12.4389
▁amenazó	-12.4389
▁automatically	-12.4389
▁culpó	-12.4389
▁delicate	-12.4389
▁palillos	-12.4389
▁setenta	-12.4389
▁apagué	-12.4389
▁jewelry	-12.4389
▁máscara	-12.4389
▁calculadora	-12.4389
▁delfines	-12.4389
▁northern	-12.4389
▁quote	-12.4389
▁rational	-12.4389
▁recibo	-12.4389
▁refugiados	-12.4389
▁rutina	-12.4389
▁snack	-12.4389
órale	-12.4389
▁nintendo	-12.4389
▁tejiendo	-12.4389
▁desconcertado	-12.4389
▁enfrí	-12.4389
▁steam	-12.4389
▁thailand	-12.4389
▁youtube	-12.4389
▁algodón	-12.4389
▁connection	-12.4389
▁enlace	-12.4389
▁ficción	-12.4389
▁juzgue	-12.4389
▁clue	-12.439
▁fiction	-12.439
▁firewood	-12.439
▁limón	-12.439
▁loving	-12.439
▁natación	-12.439
▁griega	-12.439
▁huracán	-12.439
▁unwilling	-12.439
▁consciencia	-12.439
▁creative	-12.439
▁memories	-12.439
▁tailandia	-12.439
▁tradición	-12.439
▁flojo	-12.439
▁dinosaurio	-12.439
▁escondas	-12.439
▁huelo	-12.439
▁invención	-12.439
▁versión	-12.439
▁activa	-12.439
▁encontremos	-12.439
▁almorzado	-12.439
▁interrumpió	-12.439
▁compass	-12.439
▁partner	-12.439
▁community	-12.439
▁fuéramos	-12.439
▁guitarrista	-12.439
▁carelessness	-12.439
▁formula	-12.439
▁agosto	-12.439
▁ocurriendo	-12.439
▁calculator	-12.439
▁nacionalidad	-12.439
▁crane	-12.439
▁quédese	-12.439
▁cupboard	-12.439
▁consciousness	-12.439
▁parallel	-12.439
▁sunlight	-12.439
▁agradecimiento	-12.439
▁exhibition	-12.439
▁knitting	-12.439
▁ballet	-12.439
▁estallar	-12.439
▁tremble	-12.439
▁previous	-12.439
▁automáticamente	-12.439
▁curb	-12.439
▁suertudo	-12.439
▁salesman	-12.439
▁bombones	-12.439
▁govern	-12.439
▁ipod	-12.439
▁escondí	-12.439
▁deadline	-12.439
▁reap	-12.439
▁preocupo	-12.439
▁aplicación	-12.439
▁caramelo	-12.439
▁descuidado	-12.439
▁instalar	-12.439
▁existence	-12.4391
▁tornillo	-12.4391
▁murmurando	-12.4391
▁agradecería	-12.4391
▁costosa	-12.4391
▁preocupaciones	-12.4391
▁relajarse	-12.4391
▁basic	-12.4391
▁pronunciation	-12.4391
▁arco	-12.4391
▁pulsar	-12.4391
▁espantoso	-12.4391
▁tempt	-12.4391
▁elija	-12.4391
▁prediction	-12.4391
▁critical	-12.4391
▁disparado	-12.4391
semeja	-12.4391
▁fracasado	-12.4391
▁fundamental	-12.4391
▁váyase	-12.4391
▁reparado	-12.4392
▁cepillo	-12.4392
▁title	-12.4392
▁disfrazado	-12.4392
▁chairman	-12.4392
▁motion	-12.4392
▁motivado	-12.4392
▁rebelde	-12.4392
hower	-12.4392
▁feriado	-12.4392
▁robé	-12.4393
▁perlas	-12.4393
▁carné	-12.4393
▁flock	-12.4393
▁policemen	-12.4393
▁indignado	-12.4393
▁fuss	-12.4393
▁bañando	-12.4393
▁distingue	-12.4393
▁dental	-12.4393
▁poli	-12.4393
▁luchando	-12.4393
▁trasera	-12.4393
▁temporary	-12.4394
▁subestimes	-12.4394
▁daily	-12.4394
▁dependable	-12.4394
▁querrá	-12.4394
▁lamentable	-12.4394
▁pues	-12.4394
▁fry	-12.4394
▁cardíaco	-12.4394
inició	-12.4394
stén	-12.4394
▁furiosa	-12.4394
dney	-12.4395
▁ruego	-12.4395
▁version	-12.4396
▁desprecio	-12.4396
▁pescando	-12.4396
▁rodeos	-12.4396
▁fantástico	-12.4396
hablá	-12.4397
▁artificiales	-12.4397
legó	-12.4397
▁mandado	-12.4398
▁firmemente	-12.4398
▁fabricado	-12.4398
▁confront	-12.4399
▁gay	-12.4399
▁superficial	-12.4399
▁viking	-12.4399
▁makeup	-12.4399
▁lazie	-12.4399
▁destinad	-12.4399
▁print	-12.4399
▁signal	-12.4399
▁suene	-12.44
▁croa	-12.44
▁toneladas	-12.44
▁duck	-12.44
▁preso	-12.44
▁americana	-12.44
▁llámalo	-12.44
▁costaría	-12.4401
▁feder	-12.4401
▁ocup	-12.4402
▁ileso	-12.4403
going	-12.4403
▁periodo	-12.4403
▁voyage	-12.4403
▁pensamos	-12.4403
▁abandonaron	-12.4403
▁logic	-12.4404
▁presté	-12.4404
▁corporal	-12.4404
▁fastest	-12.4405
▁exacto	-12.4405
▁perdonaré	-12.4405
▁focused	-12.4406
▁somehow	-12.4406
▁molestado	-12.4406
▁tape	-12.4406
▁caída	-12.4406
▁counter	-12.4406
▁vámonos	-12.4407
▁enfadarse	-12.4407
▁abrazo	-12.4407
▁ju	-12.4408
▁absurda	-12.4408
▁violento	-12.4408
▁cuba	-12.4409
▁accomplished	-12.4409
▁gray	-12.4409
▁navegar	-12.4409
▁delgada	-12.441
▁apostar	-12.4411
▁visitarnos	-12.4411
▁nik	-12.4411
▁create	-12.4411
▁criticized	-12.4412
▁presentarme	-12.4412
▁eliminar	-12.4412
▁guardaré	-12.4413
▁funcionando	-12.4414
▁acostarte	-12.4416
▁costado	-12.4416
▁visado	-12.4417
▁evitarlo	-12.4418
▁racista	-12.4418
bérmelo	-12.4418
▁flute	-12.4418
▁intentaron	-12.4418
▁attic	-12.4418
▁reserved	-12.4419
▁bay	-12.442
▁entramos	-12.442
▁vuelan	-12.442
▁conocés	-12.442
▁darker	-12.4421
▁pacientemente	-12.4422
▁reports	-12.4423
▁conflicto	-12.4423
▁sillón	-12.4424
hea	-12.4424
▁hail	-12.4426
▁besarte	-12.4428
vives	-12.4428
▁quedaste	-12.4428
▁ironing	-12.4431
▁protegerte	-12.4432
▁lifted	-12.4433
▁salty	-12.4433
▁maintain	-12.4435
▁encontraremos	-12.4435
▁cogeré	-12.4436
▁cacahuetes	-12.4436
▁intercambiar	-12.4436
▁mide	-12.4437
▁diferenciar	-12.4437
▁picky	-12.4439
▁destaca	-12.4439
▁nadador	-12.444
▁pasteles	-12.444
▁contradict	-12.444
isen	-12.444
▁ganaron	-12.4443
▁niece	-12.4444
▁terminaste	-12.4445
▁farther	-12.4446
▁apretar	-12.4446
▁familiares	-12.4446
▁terriblemente	-12.4447
▁mudo	-12.4449
▁visitamos	-12.4451
▁hip	-12.4453
cos	-12.4453
▁descubre	-12.4454
▁relaxing	-12.4454
▁dolphins	-12.4455
▁galletitas	-12.4455
▁sábanas	-12.4455
▁colegas	-12.4455
▁obeyed	-12.4455
▁usarlo	-12.4458
pensás	-12.446
▁stays	-12.4461
▁ganamos	-12.4462
▁comporta	-12.4463
▁islam	-12.4463
▁payment	-12.4464
▁strangely	-12.4466
▁llamarlo	-12.4467
▁gotea	-12.4467
▁admito	-12.4467
▁perd	-12.4468
▁goma	-12.4468
▁llamá	-12.4474
▁terroristas	-12.4474
▁libras	-12.4477
▁arreglo	-12.4478
▁cuidarte	-12.4479
▁obedece	-12.448
▁creés	-12.4483
ona	-12.4485
▁esperaron	-12.4485
▁runner	-12.4487
▁armada	-12.4487
▁sn	-12.4489
▁recupere	-12.449
▁ganará	-12.4492
▁dormi	-12.4496
▁desp	-12.4502
▁ajo	-12.4503
▁hacés	-12.4511
▁parientes	-12.4512
▁bones	-12.4514
▁confundid	-12.4515
▁pandas	-12.4524
▁acababa	-12.4525
▁pararme	-12.4526
▁vean	-12.4528
▁disparos	-12.4529
▁cri	-12.4531
▁ayudaron	-12.4532
▁llamarte	-12.4535
▁mini	-12.4537
▁encontraría	-12.4541
comes	-12.4543
▁víctimas	-12.4548
▁vini	-12.4548
queda	-12.4549
▁realiza	-12.455
▁deba	-12.4553
ache	-12.4558
▁reported	-12.4563
▁vitamins	-12.4567
▁limits	-12.4568
▁pap	-12.4569
▁vitaminas	-12.4569
▁coja	-12.4573
▁faults	-12.4573
▁male	-12.4574
▁triple	-12.4577
▁enseñe	-12.4579
▁bob	-12.458
▁entiendas	-12.4585
▁granjeros	-12.4586
nic	-12.4591
▁rights	-12.4601
▁exceptional	-12.4605
▁archivos	-12.4605
▁blankets	-12.4605
▁ganaría	-12.4608
▁atrac	-12.4611
▁acompañar	-12.4621
▁fáciles	-12.4623
▁diamantes	-12.4624
▁pigs	-12.4624
▁farmers	-12.4624
▁cables	-12.4624
▁sabrás	-12.4625
▁descansa	-12.4626
▁dejamos	-12.4626
▁mensajes	-12.4628
▁competente	-12.4629
▁aproxima	-12.4632
▁ending	-12.4636
▁olvid	-12.4639
▁vuelvan	-12.4641
▁goats	-12.4642
▁chocolates	-12.4646
▁vencer	-12.4648
▁marks	-12.4655
▁mosquitos	-12.4662
▁helada	-12.4666
▁varía	-12.4666
ino	-12.4666
ríamos	-12.4673
▁vidas	-12.4678
▁brains	-12.468
▁tin	-12.4681
▁arroj	-12.4687
▁mol	-12.4689
dico	-12.4695
▁aterroriza	-12.4696
▁consulta	-12.4699
▁cuentos	-12.4699
▁ayudase	-12.47
▁afueras	-12.4701
▁roman	-12.4705
▁casara	-12.472
▁apt	-12.4723
▁pelos	-12.4725
▁hoteles	-12.473
▁dejad	-12.4738
sería	-12.4744
▁forth	-12.4748
▁parecidos	-12.4756
▁disponibles	-12.4757
▁negociar	-12.4761
▁ayuden	-12.4769
▁debts	-12.4774
▁aprendes	-12.4779
értelo	-12.4783
devuélveme	-12.4791
▁copas	-12.4793
▁morirá	-12.4798
▁tocas	-12.4806
▁conseguirá	-12.4807
▁lé	-12.481
▁altas	-12.481
▁tube	-12.481
▁sostiene	-12.4812
▁actions	-12.4814
▁pastor	-12.4843
▁produces	-12.4846
▁serlo	-12.4848
▁mejore	-12.4849
▁aterrizar	-12.4855
▁costar	-12.4861
▁calcul	-12.4864
▁admite	-12.4869
▁ships	-12.4872
▁aspectos	-12.4872
▁condena	-12.4875
awa	-12.4885
▁ordenar	-12.4891
▁interests	-12.4892
aid	-12.4906
▁goals	-12.491
▁materials	-12.491
▁training	-12.4912
▁castiga	-12.4914
▁besado	-12.4922
▁procur	-12.4933
ping	-12.4937
icked	-12.4939
▁recort	-12.4946
▁pes	-12.4948
▁preocupar	-12.495
rado	-12.4951
▁limpiara	-12.4966
▁echas	-12.4977
▁kn	-12.498
ight	-12.4986
▁abiertos	-12.4988
jones	-12.4998
▁ache	-12.5011
▁reconocid	-12.5011
▁presum	-12.5015
▁barcos	-12.5017
▁patients	-12.5017
▁coste	-12.5038
preció	-12.5067
▁rooms	-12.507
naciones	-12.5073
▁tr	-12.5074
▁coc	-12.5076
▁recompensa	-12.5082
▁exige	-12.5095
▁busque	-12.5096
▁holes	-12.5105
▁v	-12.5107
▁cumpl	-12.5109
▁casos	-12.5118
▁skip	-12.5119
▁acaban	-12.512
▁fondos	-12.512
▁caballeros	-12.5128
▁bombs	-12.5134
▁poné	-12.514
▁entres	-12.5148
ah	-12.5152
pagando	-12.5157
vando	-12.5164
▁despe	-12.5165
▁remo	-12.5169
▁pint	-12.517
▁salva	-12.5173
tenía	-12.5174
▁chup	-12.5174
▁opens	-12.5186
aza	-12.5198
ain	-12.5201
▁representa	-12.5201
▁chi	-12.5209
▁favoritos	-12.5213
▁forms	-12.5215
▁dolls	-12.522
▁levantan	-12.5223
▁blancas	-12.5223
▁desorden	-12.5232
▁esperan	-12.5241
▁flights	-12.5243
▁detesta	-12.5244
ondas	-12.5245
▁exists	-12.5249
ai	-12.5254
bel	-12.526
yendo	-12.5261
▁indicate	-12.5267
cked	-12.5276
tely	-12.5277
▁expresa	-12.5279
▁contesta	-12.5297
▁medias	-12.5299
▁nadaba	-12.5301
▁mile	-12.5309
▁points	-12.5337
▁escapa	-12.534
▁cantantes	-12.5343
▁formar	-12.5361
▁cerradas	-12.5364
▁oje	-12.5365
▁singers	-12.5366
▁aspir	-12.537
▁tomara	-12.538
gar	-12.5388
▁vestidos	-12.5396
▁intentas	-12.5396
▁barri	-12.54
ck	-12.5401
▁frances	-12.5402
▁islands	-12.5407
▁raises	-12.5407
▁preparados	-12.5424
▁realiz	-12.5429
▁comenza	-12.5441
▁pele	-12.5443
▁tí	-12.5456
▁principios	-12.5464
lin	-12.5464
▁pl	-12.5465
▁banks	-12.5473
eight	-12.5476
▁vendid	-12.5503
▁desear	-12.5504
▁console	-12.5509
escrib	-12.5516
seguro	-12.5521
ps	-12.5522
▁humillad	-12.5522
toca	-12.5524
▁uniform	-12.5524
prueba	-12.5531
bul	-12.5532
▁ch	-12.5549
▁abr	-12.5561
▁includ	-12.5563
▁enterrar	-12.5574
ensa	-12.5581
rolled	-12.5583
▁unir	-12.559
itos	-12.5598
▁invadi	-12.5605
▁instant	-12.5606
▁remark	-12.5608
desea	-12.5616
pensá	-12.5624
▁gua	-12.5626
▁carreras	-12.5626
▁arriesga	-12.5631
▁atra	-12.5631
▁atender	-12.5646
▁restos	-12.5647
sador	-12.5659
▁volverás	-12.566
▁evita	-12.5662
▁stir	-12.5669
▁apuesta	-12.567
▁capítulo	-12.567
▁minifalda	-12.567
▁aliado	-12.5671
▁pendiente	-12.5671
▁confirmar	-12.5673
▁permít	-12.5674
▁crí	-12.5674
▁bacteria	-12.5674
▁maravilla	-12.5674
▁recuperará	-12.5675
▁anuncio	-12.5675
▁liberado	-12.5676
▁candidate	-12.5677
▁graciosa	-12.5677
▁transporte	-12.5678
▁lavarropa	-12.5679
▁clavo	-12.568
▁pariente	-12.5681
▁huella	-12.5682
▁brake	-12.5682
▁mueva	-12.5682
▁estampilla	-12.5683
▁británico	-12.5683
▁crop	-12.5684
▁lip	-12.5685
▁peanut	-12.5685
▁mueble	-12.5687
▁ayudan	-12.5697
▁panda	-12.5699
▁hacé	-12.5702
▁arranca	-12.5704
▁pal	-12.5708
▁charges	-12.5711
▁milla	-12.5718
▁exhibi	-12.572
vie	-12.5724
▁aprueb	-12.5726
▁errors	-12.5726
▁sigh	-12.5729
anda	-12.5734
▁irrelevant	-12.5739
▁resfri	-12.5739
▁sets	-12.5741
▁cojo	-12.5745
▁reí	-12.5746
▁marc	-12.5756
ciento	-12.5757
▁corro	-12.5757
▁escabull	-12.5764
ulated	-12.5766
rang	-12.5766
bló	-12.5766
flexible	-12.5766
water	-12.5769
successful	-12.5769
podrá	-12.577
minute	-12.577
ojal	-12.577
había	-12.577
saw	-12.5771
▁supus	-12.5771
ple	-12.5773
▁temía	-12.5773
▁admiraba	-12.5774
▁instal	-12.5784
▁rellen	-12.5785
estuviste	-12.5785
sois	-12.5786
hablaste	-12.5789
cero	-12.5793
▁abro	-12.5799
▁aparece	-12.5799
▁gal	-12.58
▁crear	-12.58
juegas	-12.5801
▁cl	-12.5801
▁involve	-12.5803
▁disguise	-12.5803
▁struggle	-12.5804
▁resuelv	-12.5804
▁stress	-12.5805
▁interrumpir	-12.5808
▁investiga	-12.5808
▁compulsiv	-12.5809
▁fascina	-12.5809
▁wink	-12.5809
▁cristal	-12.581
▁separar	-12.581
▁traductor	-12.581
▁mona	-12.581
▁volcano	-12.5812
▁contribute	-12.5812
▁afila	-12.5812
▁fund	-12.5812
hand	-12.5814
▁observa	-12.5814
▁necessar	-12.5815
▁chase	-12.5815
▁adecuada	-12.5815
irás	-12.5815
▁valle	-12.5815
▁tomato	-12.5816
▁vestir	-12.5817
▁gasoline	-12.5817
cript	-12.5817
▁insiste	-12.5817
▁futbol	-12.5817
▁previo	-12.5817
▁sentís	-12.5818
▁significant	-12.5818
▁casual	-12.5818
▁calendar	-12.5818
▁opone	-12.5818
▁drastic	-12.5818
óxido	-12.5818
▁acertijo	-12.5818
▁agriculture	-12.5818
▁ambiente	-12.5818
▁ambition	-12.5818
▁archaeologist	-12.5818
▁asesinó	-12.5818
▁astronomía	-12.5818
▁attribute	-12.5818
▁babysitter	-12.5818
▁banquero	-12.5818
▁bargain	-12.5818
▁batteries	-12.5818
▁belief	-12.5818
▁benefit	-12.5818
▁bulb	-12.5818
▁calefacción	-12.5818
▁calurosa	-12.5818
▁carpenter	-12.5818
▁catálogo	-12.5818
▁cenizas	-12.5818
▁chantaje	-12.5818
▁cirugía	-12.5818
▁comestibles	-12.5818
▁conducción	-12.5818
▁cradle	-12.5818
▁democracia	-12.5818
▁democracy	-12.5818
▁descifr	-12.5818
▁despierte	-12.5818
▁despistado	-12.5818
▁destruido	-12.5818
▁devorado	-12.5818
▁devuelto	-12.5818
▁dictionaries	-12.5818
▁diligent	-12.5818
▁dishonest	-12.5818
▁divertiste	-12.5818
▁duties	-12.5818
▁edge	-12.5818
▁efficient	-12.5818
▁elevó	-12.5818
▁embajador	-12.5818
▁encantó	-12.5818
▁encerrado	-12.5818
▁entusiasmo	-12.5818
▁equivoqué	-12.5818
▁errand	-12.5818
▁especie	-12.5818
▁esperándote	-12.5818
▁estrelló	-12.5818
▁estupideces	-12.5818
▁exactitud	-12.5818
▁expliqué	-12.5818
▁fabuloso	-12.5818
▁farmacia	-12.5818
▁fountain	-12.5818
▁fregadero	-12.5818
▁harbor	-12.5818
▁hiciéramos	-12.5818
▁hidrógeno	-12.5818
▁hígado	-12.5818
▁infarto	-12.5818
▁inhabitants	-12.5818
▁injury	-12.5818
▁instinto	-12.5818
▁intenso	-12.5818
▁inversión	-12.5818
▁irresponsible	-12.5818
▁jungle	-12.5818
▁lastimé	-12.5818
▁lechuga	-12.5818
▁magician	-12.5818
▁mammal	-12.5818
▁nacido	-12.5818
▁netherlands	-12.5818
▁nocturna	-12.5818
▁ofender	-12.5818
▁padrastro	-12.5818
▁palideció	-12.5818
▁palomitas	-12.5818
▁panadería	-12.5818
▁pathetic	-12.5818
▁peculiar	-12.5818
▁pickpocket	-12.5818
▁portugués	-12.5818
▁positivo	-12.5818
▁precisa	-12.5818
▁promising	-12.5818
▁pulmón	-12.5818
▁quebrado	-12.5818
▁questionnaire	-12.5818
▁receipt	-12.5818
▁refiero	-12.5818
▁relájate	-12.5818
▁romántica	-12.5818
▁routine	-12.5818
▁rudo	-12.5818
▁satisfacer	-12.5818
▁satélite	-12.5818
▁shark	-12.5818
▁signature	-12.5818
▁slim	-12.5818
▁slump	-12.5818
▁snoring	-12.5818
▁sorrow	-12.5818
▁souvenir	-12.5818
▁squirrel	-12.5818
▁stadium	-12.5818
▁stranded	-12.5818
▁sunbathing	-12.5818
▁survivor	-12.5818
▁sólida	-12.5818
▁sótano	-12.5818
▁tabla	-12.5818
▁telescope	-12.5818
▁telescopio	-12.5818
▁tournament	-12.5818
▁tripulación	-12.5818
▁troops	-12.5818
▁tropez	-12.5818
▁unattended	-12.5818
▁vacuum	-12.5818
▁valentín	-12.5818
▁veinticinco	-12.5818
▁venecia	-12.5818
▁vergonzoso	-12.5818
▁widow	-12.5818
▁withdrew	-12.5818
▁apuñala	-12.5818
▁confidencial	-12.5818
▁contagiosa	-12.5818
▁conversamos	-12.5818
▁criticism	-12.5818
▁intersection	-12.5818
▁masculine	-12.5818
▁nochebuena	-12.5818
▁picó	-12.5818
▁rural	-12.5818
▁sartén	-12.5818
▁scandal	-12.5818
▁simpatía	-12.5818
▁spouse	-12.5818
▁stream	-12.5818
▁yield	-12.5818
▁alexand	-12.5818
▁debiera	-12.5818
▁lettuce	-12.5818
▁torneo	-12.5818
▁blend	-12.5818
▁representative	-12.5818
▁roast	-12.5818
▁afición	-12.5818
▁communication	-12.5818
▁proposición	-12.5818
▁sequía	-12.5818
▁aéreo	-12.5818
▁foul	-12.5818
▁rebaja	-12.5818
▁silenciosamente	-12.5818
▁cuídate	-12.5818
▁quédense	-12.5818
▁separó	-12.5818
▁wreck	-12.5818
▁chofer	-12.5818
▁distraído	-12.5818
▁espinacas	-12.5818
▁folk	-12.5818
▁quíte	-12.5818
▁specific	-12.5818
▁compasión	-12.5818
▁cooperation	-12.5818
▁estrés	-12.5818
▁diplomatic	-12.5818
▁doorbell	-12.5818
▁estadio	-12.5818
▁dominio	-12.5818
▁reemplazar	-12.5818
▁rompiste	-12.5818
▁pecado	-12.5818
▁britain	-12.5818
▁emoción	-12.5818
▁reflection	-12.5818
▁salmon	-12.5818
▁vestía	-12.5818
rupción	-12.5818
▁sacudirse	-12.5818
▁sorda	-12.5818
▁mommy	-12.5818
▁cafe	-12.5818
▁calendario	-12.5818
▁dispers	-12.5818
▁calificaciones	-12.5818
▁exceso	-12.5818
▁grueso	-12.5818
▁haciéndolo	-12.5818
▁proverbio	-12.5818
▁meditating	-12.5818
▁torpe	-12.5818
▁entendiera	-12.5818
▁humid	-12.5818
▁reflexionar	-12.5818
▁dudé	-12.5818
▁factories	-12.5818
▁fiddle	-12.5818
▁identificar	-12.5818
▁carcajada	-12.5818
▁pesimista	-12.5818
▁objective	-12.5818
▁bakery	-12.5818
▁cartero	-12.5818
▁secure	-12.5818
▁unbearable	-12.5818
▁nationality	-12.5818
▁temblando	-12.5818
▁skeptic	-12.5818
▁díganme	-12.5818
▁villagers	-12.5818
▁enseñanza	-12.5818
▁accountant	-12.5819
▁disappointment	-12.5819
▁handbag	-12.5819
▁pudiéramos	-12.5819
▁rainbow	-12.5819
▁regañado	-12.5819
▁luckily	-12.5819
▁ojeada	-12.5819
▁gravedad	-12.5819
▁apresurado	-12.5819
▁hormigas	-12.5819
▁function	-12.5819
▁defectuoso	-12.5819
▁dentífrico	-12.5819
▁temperamento	-12.5819
▁aparcado	-12.5819
▁tasty	-12.5819
▁descuido	-12.5819
▁regalado	-12.5819
▁fatter	-12.5819
▁reflect	-12.5819
▁fulfill	-12.5819
▁mostrame	-12.5819
▁pulsera	-12.5819
▁perdóneme	-12.5819
▁realistic	-12.5819
▁espina	-12.5819
▁pronunciación	-12.5819
▁mankind	-12.5819
▁inspired	-12.5819
▁desempleado	-12.5819
▁alpes	-12.5819
▁complacer	-12.5819
▁tóme	-12.5819
▁fíe	-12.5819
▁bailarín	-12.5819
▁humanity	-12.5819
▁venice	-12.5819
▁entregué	-12.5819
▁existir	-12.582
▁avísame	-12.582
▁arduamente	-12.582
▁regardless	-12.582
▁spin	-12.582
▁alcoholic	-12.582
▁vanished	-12.582
▁gesto	-12.582
▁airmail	-12.582
▁liado	-12.582
▁recoja	-12.582
▁contaste	-12.582
▁comic	-12.582
▁caminé	-12.582
▁jardinero	-12.582
▁cocido	-12.582
▁cesta	-12.582
▁passage	-12.582
▁hotter	-12.5821
▁deshonesto	-12.5821
▁maleducado	-12.5821
▁dimitir	-12.5821
▁ahogando	-12.5821
▁cockroaches	-12.5821
▁pospondr	-12.5821
▁extraordinario	-12.5821
▁centr	-12.5821
▁salsa	-12.5821
▁basis	-12.5821
▁termino	-12.5821
▁aprendi	-12.5821
▁crecido	-12.5821
▁sociable	-12.5821
▁graduarse	-12.5821
▁minerales	-12.5821
bebes	-12.5821
▁mataste	-12.5821
▁desayuné	-12.5821
▁shortage	-12.5821
▁contratado	-12.5821
▁vigilando	-12.5821
▁gris	-12.5821
▁alcance	-12.5821
▁frustrado	-12.5821
▁desarrollo	-12.5822
▁fist	-12.5822
▁valley	-12.5822
▁especialidad	-12.5822
▁escondiste	-12.5822
▁compleja	-12.5822
▁innecesario	-12.5822
▁alfabeto	-12.5822
▁global	-12.5822
▁vestirse	-12.5822
▁ligeramente	-12.5823
▁educated	-12.5823
▁instantly	-12.5823
▁recovery	-12.5823
▁resfrío	-12.5823
▁entretenido	-12.5823
▁speechless	-12.5823
▁súbe	-12.5823
▁estupendamente	-12.5823
▁recordado	-12.5823
▁chile	-12.5823
employment	-12.5823
▁prepárate	-12.5823
▁damp	-12.5823
▁obligaron	-12.5824
▁snowman	-12.5824
▁implicado	-12.5824
▁evitando	-12.5824
sterna	-12.5824
▁tender	-12.5825
▁misteriosa	-12.5825
▁worthless	-12.5825
▁reímos	-12.5825
▁indefenso	-12.5825
▁childish	-12.5825
▁traduzca	-12.5825
▁sickness	-12.5826
▁fama	-12.5826
▁perdonará	-12.5826
▁untied	-12.5826
▁barra	-12.5826
▁prestas	-12.5826
▁conquer	-12.5827
▁barrer	-12.5827
▁sailing	-12.5827
▁wax	-12.5827
▁anticipated	-12.5827
▁déjelo	-12.5827
▁dispararon	-12.5827
▁sucederá	-12.5827
▁tiny	-12.5827
▁manejando	-12.5828
▁interferir	-12.5828
▁repetirlo	-12.5828
▁agitó	-12.5828
▁nacionales	-12.5828
▁conocerla	-12.5828
▁ticking	-12.5829
▁retirarse	-12.5829
▁commander	-12.5829
▁entraste	-12.5829
▁fade	-12.5829
▁decepción	-12.583
▁intentemos	-12.583
▁conveniente	-12.583
▁chopsticks	-12.583
▁estribos	-12.583
▁villancicos	-12.583
▁dímelo	-12.583
▁necesitáis	-12.583
▁racional	-12.583
▁suelta	-12.583
▁secuestrado	-12.583
▁apretado	-12.5831
▁orilla	-12.5831
▁gata	-12.5831
▁cantemos	-12.5831
▁trajiste	-12.5831
▁socio	-12.5832
▁spying	-12.5833
010.	-12.5833
▁prestada	-12.5834
▁despedirse	-12.5835
▁ruta	-12.5835
▁quemando	-12.5836
▁lejano	-12.5836
▁arrestada	-12.5836
▁moriría	-12.5836
▁cansando	-12.5836
▁dull	-12.5836
▁dna	-12.5837
▁liberal	-12.5837
▁captured	-12.5837
▁ripe	-12.5837
▁apunté	-12.5837
▁triunfará	-12.5838
▁bandage	-12.5838
▁phrase	-12.5838
▁atraviesa	-12.5838
▁outcome	-12.5839
▁alley	-12.5839
▁capacidades	-12.5839
▁subimos	-12.5839
▁competed	-12.5839
▁amigable	-12.584
prendieron	-12.5841
▁update	-12.5841
▁barked	-12.5841
▁shaving	-12.5841
▁preparé	-12.5842
▁witnesses	-12.5842
▁reírse	-12.5843
▁gardener	-12.5843
▁alps	-12.5843
cakes	-12.5844
▁leíste	-12.5845
▁moverse	-12.5846
▁sandía	-12.5846
▁envío	-12.5846
▁reporter	-12.5846
▁paseando	-12.5846
▁envíame	-12.5846
▁subieron	-12.5847
▁packing	-12.5848
gave	-12.5848
▁sello	-12.5849
▁easter	-12.5849
▁débiles	-12.585
▁consideraría	-12.585
▁amará	-12.585
▁mariscos	-12.5851
▁refugees	-12.5851
▁siembras	-12.5851
▁apoyes	-12.5851
▁viajero	-12.5854
▁fled	-12.5854
▁lamentar	-12.5855
▁flipp	-12.5856
▁choke	-12.5857
▁exponer	-12.5858
▁sección	-12.5858
▁mejorará	-12.5859
▁cenando	-12.586
▁invenci	-12.586
▁permitiré	-12.5862
▁pony	-12.5862
▁enfrente	-12.5863
▁cured	-12.5864
▁limpiado	-12.5864
cidimos	-12.5865
wed	-12.5867
▁callada	-12.5869
▁flexible	-12.587
▁descubrirá	-12.5871
▁canceló	-12.5871
▁inseguro	-12.5872
▁indios	-12.5872
▁muelas	-12.5872
▁hamburgers	-12.5872
▁freezes	-12.5872
▁disturbed	-12.5873
▁visitantes	-12.5874
▁llamarle	-12.5874
▁comparta	-12.5874
▁italiana	-12.5875
▁patas	-12.5875
▁fasten	-12.5876
▁increased	-12.5877
▁bate	-12.5879
▁ironed	-12.5879
▁escucharon	-12.5885
▁conocerlo	-12.5886
▁salada	-12.5886
▁visitarle	-12.5886
▁cruzado	-12.5887
▁planchar	-12.5887
▁planeamos	-12.5887
▁completar	-12.5888
▁terminarlo	-12.5889
▁sáca	-12.5892
▁boasts	-12.5894
▁stinks	-12.5894
▁owls	-12.5894
▁cucarachas	-12.5894
▁asians	-12.5894
▁cultivos	-12.5894
cendió	-12.5894
▁detente	-12.5895
▁helados	-12.5895
▁travelers	-12.5897
▁irrelevante	-12.5898
▁conducía	-12.5899
▁creerlo	-12.5899
▁poorly	-12.5899
▁pensaría	-12.59
▁armado	-12.5901
▁echarme	-12.5901
▁toser	-12.5901
▁conocerle	-12.5901
▁anchor	-12.5902
vivieron	-12.5903
▁strongly	-12.5906
▁stores	-12.5916
▁cebollas	-12.5916
▁colleagues	-12.5916
▁pigeons	-12.5916
▁terrorists	-12.5916
▁employed	-12.5917
▁signs	-12.5917
▁lidiar	-12.5919
▁decirnos	-12.5921
▁cambiarme	-12.5922
▁gaze	-12.5923
vendrás	-12.593
tivos	-12.5932
▁extraordinaria	-12.5933
▁relaje	-12.5934
fit	-12.5934
▁fumes	-12.5936
▁calculat	-12.5937
▁leaks	-12.5937
▁scraps	-12.5937
▁mueras	-12.5938
▁flota	-12.5938
▁prefieren	-12.5939
▁cría	-12.594
▁preguntaría	-12.5942
▁hum	-12.5943
▁doblar	-12.5945
▁descubra	-12.5947
▁delight	-12.5947
▁extinct	-12.5947
cula	-12.5948
▁puño	-12.5948
▁alrededores	-12.5949
▁bathing	-12.595
▁rías	-12.595
▁noel	-12.5952
▁islas	-12.5953
▁examin	-12.5955
▁presione	-12.5956
estaría	-12.5956
▁footing	-12.5958
▁haríamos	-12.5959
▁cantes	-12.5959
▁lavarropas	-12.5959
cera	-12.5961
▁anti	-12.5961
▁pisos	-12.5962
▁dais	-12.5967
▁seller	-12.5974
▁formed	-12.5975
▁culpado	-12.5979
▁codos	-12.5981
▁docenas	-12.5981
▁surf	-12.5982
▁christians	-12.5986
▁reales	-12.5988
▁creerá	-12.5991
▁modernos	-12.5992
▁abejas	-12.6003
▁spie	-12.6004
azón	-12.6004
▁dolores	-12.6007
▁salgan	-12.6012
▁peaceful	-12.6015
▁disfrutan	-12.6015
illos	-12.6019
▁abiertas	-12.602
▁argumento	-12.602
▁plantar	-12.6023
▁temen	-12.6031
sant	-12.6034
▁comenzará	-12.6037
▁ordena	-12.6038
▁relojes	-12.6043
▁slices	-12.6047
▁kites	-12.6047
jaba	-12.605
▁union	-12.605
alizado	-12.6052
▁ping	-12.6052
irse	-12.6057
▁exceptions	-12.6058
▁hablaban	-12.6058
▁probe	-12.6062
▁ingresar	-12.6063
▁estimate	-12.6066
▁importado	-12.6067
▁compensar	-12.6068
▁mejoró	-12.608
▁violenta	-12.6082
▁decida	-12.6082
▁cámaras	-12.6084
▁smoked	-12.6088
▁límites	-12.6091
▁boils	-12.6092
▁debían	-12.6092
▁economics	-12.6093
▁dejarle	-12.6095
▁atacar	-12.6099
▁proven	-12.61
▁ayudarlos	-12.6102
▁tierras	-12.6104
▁últimas	-12.6105
▁expres	-12.6106
▁secos	-12.611
▁characters	-12.6113
▁preguntaste	-12.6115
ridad	-12.6117
▁suspendi	-12.6125
▁cortés	-12.6132
▁aceptara	-12.6137
▁adivine	-12.6141
▁pila	-12.6145
right	-12.6151
▁cro	-12.6156
▁pesadillas	-12.6157
coming	-12.6162
▁favorable	-12.6162
vida	-12.6162
▁cometas	-12.6163
▁cantan	-12.6167
▁ants	-12.6168
▁compraré	-12.617
▁diseñ	-12.6175
▁guardias	-12.618
▁amables	-12.6188
▁acostumbra	-12.6193
▁amado	-12.6194
cubre	-12.6195
▁za	-12.6196
urged	-12.6201
▁hatch	-12.6202
▁misa	-12.6203
▁oscuras	-12.6205
▁eater	-12.6208
▁dejaba	-12.6212
▁quedate	-12.6212
▁pidas	-12.6221
ack	-12.6224
▁envi	-12.6225
▁imitar	-12.6227
af	-12.6229
▁machines	-12.6233
▁librar	-12.6233
▁decepcione	-12.6236
sitting	-12.6239
▁demandas	-12.6239
▁consumi	-12.624
mamente	-12.6241
▁enterr	-12.6243
▁photographs	-12.6246
bieron	-12.6247
▁intent	-12.6261
▁regreses	-12.6267
▁cosechas	-12.6269
▁extrañas	-12.6271
uta	-12.6274
▁percat	-12.6275
▁falt	-12.6278
▁matará	-12.6279
▁obligar	-12.628
▁tardar	-12.6287
▁pierdes	-12.6291
▁testigos	-12.6291
▁veían	-12.6294
▁estudian	-12.6307
▁medidas	-12.6314
▁comerse	-12.6321
▁expertos	-12.6322
▁flo	-12.6327
▁manifestan	-12.6331
▁francesas	-12.6339
▁recorte	-12.6346
▁pato	-12.635
▁mencionar	-12.6356
▁questioned	-12.6358
▁impacientes	-12.6359
▁apariencias	-12.6359
▁recibier	-12.6362
▁aguard	-12.6363
▁finja	-12.6372
▁ro	-12.6373
▁maravillosas	-12.6377
adores	-12.6382
▁fr	-12.6383
▁causas	-12.6386
▁confies	-12.6409
▁ji	-12.6412
▁experts	-12.6425
▁lindos	-12.6428
▁tests	-12.644
▁pisa	-12.6449
▁vivirá	-12.6454
▁desayunas	-12.6455
▁hicieran	-12.6457
hei	-12.6461
tales	-12.6475
▁decor	-12.6479
▁sujeta	-12.6485
hu	-12.649
avo	-12.6491
▁permití	-12.6493
▁veranos	-12.6493
tomas	-12.6494
▁ceder	-12.6501
▁cam	-12.6505
▁sopla	-12.6508
▁tear	-12.6509
▁quedaras	-12.6513
▁shoulders	-12.6531
▁bajos	-12.655
▁vendrán	-12.6555
▁motivos	-12.6564
aped	-12.6568
table	-12.6571
▁dormitorios	-12.6587
▁host	-12.6589
▁encantar	-12.659
tained	-12.6599
nzaron	-12.66
▁chu	-12.6604
riendo	-12.6604
▁llenar	-12.6608
▁artículos	-12.661
▁quitas	-12.6637
gle	-12.6641
▁arriesgar	-12.6642
uf	-12.6644
▁choices	-12.6644
▁computadoras	-12.665
▁ganara	-12.6652
▁costumbres	-12.6656
▁presenta	-12.6656
imiento	-12.6657
▁founded	-12.6666
▁miran	-12.6677
▁enamorar	-12.6686
▁comerla	-12.6689
irte	-12.6691
▁invade	-12.6693
lder	-12.6698
▁mejora	-12.6699
▁tag	-12.6701
▁fábricas	-12.6702
▁consola	-12.6706
▁peleas	-12.6713
▁corresponde	-12.6713
▁dies	-12.6714
▁seasons	-12.6725
▁renta	-12.6728
▁banne	-12.6729
cito	-12.6731
▁alza	-12.6745
idos	-12.6761
▁aconseja	-12.6774
▁restaurants	-12.679
▁hats	-12.6792
▁corri	-12.6795
▁descanse	-12.6802
▁preste	-12.6808
▁bord	-12.6817
▁lana	-12.6817
▁award	-12.6819
▁fo	-12.6825
▁écha	-12.6832
▁gustos	-12.6842
eces	-12.6844
▁limita	-12.686
▁escal	-12.6861
▁cerra	-12.6873
aremos	-12.6883
▁modos	-12.6892
ori	-12.6901
cena	-12.6908
▁provoca	-12.6926
▁exercises	-12.6932
▁cantara	-12.6939
▁mari	-12.6949
▁entendi	-12.6953
▁speakers	-12.6957
▁raras	-12.6984
▁trans	-12.6987
▁burla	-12.6987
día	-12.6995
▁cuestion	-12.7009
érgico	-12.7024
ap	-12.7026
▁rings	-12.7027
▁enterar	-12.7031
▁propus	-12.7036
▁reun	-12.7048
▁bells	-12.7049
▁chin	-12.7055
ivo	-12.7056
ili	-12.7069
▁mondays	-12.7069
▁regal	-12.7073
▁golpea	-12.7073
▁captura	-12.7093
▁fij	-12.7108
cción	-12.7117
▁gi	-12.7123
▁recuper	-12.7125
▁conocías	-12.7131
▁mantene	-12.7132
volverá	-12.7143
▁leap	-12.715
gué	-12.7153
tiva	-12.7153
▁moj	-12.7156
puso	-12.7158
ario	-12.7189
▁ag	-12.7191
ales	-12.7198
▁lees	-12.7199
▁pónga	-12.7201
▁pelotas	-12.7202
tiles	-12.7209
▁pospus	-12.7213
▁chatte	-12.7223
▁portar	-12.7223
acción	-12.7228
▁retrasa	-12.7229
ssured	-12.7231
▁encarg	-12.7234
▁lesion	-12.7234
▁felicitar	-12.7235
fer	-12.7235
ddling	-12.7248
▁pose	-12.7249
jó	-12.7254
nero	-12.7255
▁elegi	-12.726
▁emp	-12.7275
▁sudar	-12.7289
light	-12.7293
▁reza	-12.7294
ence	-12.7295
▁odias	-12.7295
dir	-12.7304
leading	-12.7312
▁pun	-12.7318
▁serie	-12.732
▁tratas	-12.732
▁fruits	-12.732
▁telefone	-12.7327
▁instrument	-12.7329
pón	-12.7329
▁consulte	-12.733
▁acud	-12.7336
▁comience	-12.7337
▁ninja	-12.7341
▁esclavo	-12.7342
▁expire	-12.7342
▁films	-12.7343
▁channel	-12.7344
▁órgano	-12.7344
▁conduzca	-12.7344
▁voto	-12.7344
▁lung	-12.7344
▁brace	-12.7344
▁pein	-12.7347
▁muera	-12.7347
▁hueso	-12.735
▁wave	-12.735
▁instrumento	-12.735
▁labio	-12.7352
▁herramienta	-12.7352
▁option	-12.7352
▁pulga	-12.7352
▁impuesto	-12.7353
▁guest	-12.7355
▁bone	-12.7358
▁european	-12.7358
▁bombero	-12.736
▁aparc	-12.7363
▁vegetariano	-12.7365
▁scrap	-12.7373
▁freno	-12.7373
▁continu	-12.7374
▁fume	-12.7383
▁rescat	-12.739
▁incompetent	-12.7392
▁monta	-12.7397
▁cobrar	-12.7401
▁añadi	-12.7404
▁leak	-12.7406
▁sentimiento	-12.7407
irme	-12.7413
▁mezcl	-12.7415
▁despreci	-12.7418
▁urban	-12.7418
▁natives	-12.7418
▁encontrará	-12.7423
▁tolerar	-12.7425
▁aparecer	-12.7426
fashioned	-12.7427
creéis	-12.7427
▁pensá	-12.7429
rely	-12.743
▁tribu	-12.743
▁bars	-12.743
room	-12.7431
¡	-12.7432
lloverá	-12.7435
down	-12.7435
ayuda	-12.7435
capable	-12.7436
viniste	-12.7436
américa	-12.7436
vosotros	-12.7436
judge	-12.7436
box	-12.7436
hiciste	-12.7436
great	-12.7437
together	-12.7437
sentimiento	-12.7437
iar	-12.7439
▁conflict	-12.7439
▁persuadi	-12.7439
comer	-12.744
her	-12.744
▁sueña	-12.744
▁bolsas	-12.7443
▁eleva	-12.7443
▁vuela	-12.7443
sible	-12.7443
▁froze	-12.7444
hold	-12.7447
▁describir	-12.7448
ley	-12.7449
▁envía	-12.7451
▁arrogant	-12.7452
aleja	-12.7455
▁comedia	-12.7455
▁revise	-12.7457
struyó	-12.7458
▁consent	-12.7458
▁elect	-12.7459
torio	-12.7461
▁frighten	-12.7461
▁wi	-12.7462
▁approach	-12.7462
solo	-12.7464
▁fallo	-12.7464
▁release	-12.7469
▁cuénta	-12.7469
away	-12.747
▁amuse	-12.747
▁fiel	-12.7472
▁relie	-12.7472
▁scold	-12.7473
▁desconocid	-12.7474
▁sail	-12.7474
▁appeti	-12.7475
▁espacial	-12.7476
▁occidental	-12.7477
▁actividad	-12.7478
▁obsolet	-12.7479
▁inund	-12.7479
▁ronca	-12.7479
▁attentive	-12.748
▁indigna	-12.748
▁escoge	-12.748
▁proper	-12.7481
▁pregúnta	-12.7481
brieron	-12.7481
▁guilt	-12.7481
▁murmur	-12.7481
▁imprudente	-12.7482
▁déja	-12.7483
▁quinient	-12.7483
▁enséñ	-12.7483
▁mug	-12.7483
debe	-12.7483
▁identi	-12.7483
ollywood	-12.7483
▁scienti	-12.7483
▁aboli	-12.7484
icycle	-12.7484
▁ingenio	-12.7484
▁territor	-12.7484
▁ordeña	-12.7485
▁otorg	-12.7485
▁proceed	-12.7485
oportuno	-12.7485
zhou	-12.7485
ófono	-12.7485
▁acantilado	-12.7485
▁acarici	-12.7485
▁acepté	-12.7485
▁alemana	-12.7485
▁ambición	-12.7485
▁approval	-12.7485
▁aprendizaje	-12.7485
▁aprieto	-12.7485
▁astronomy	-12.7485
▁background	-12.7485
▁backward	-12.7485
▁birome	-12.7485
▁blackmailed	-12.7485
▁básica	-12.7485
▁cachorrito	-12.7485
▁caigo	-12.7485
▁callejón	-12.7485
▁campesino	-12.7485
▁campeón	-12.7485
▁carpintero	-12.7485
▁carretilla	-12.7485
▁catástrofe	-12.7485
▁cayera	-12.7485
▁celsius	-12.7485
▁centímetros	-12.7485
▁cepíll	-12.7485
▁certeza	-12.7485
▁chicle	-12.7485
▁circo	-12.7485
▁cocodrilo	-12.7485
▁comandante	-12.7485
▁compromise	-12.7485
▁comunican	-12.7485
▁comunidad	-12.7485
▁conclude	-12.7485
▁conexión	-12.7485
▁construí	-12.7485
▁cricket	-12.7485
▁crocodile	-12.7485
▁cuenco	-12.7485
▁cuervo	-12.7485
▁cuñado	-12.7485
▁cólera	-12.7485
▁dañó	-12.7485
▁deceased	-12.7485
▁decírtelo	-12.7485
▁derribó	-12.7485
▁desacuerdo	-12.7485
▁descompuesto	-12.7485
▁desilusionado	-12.7485
▁desperdicie	-12.7485
▁despidió	-12.7485
▁destruir	-12.7485
▁detroit	-12.7485
▁diabetic	-12.7485
▁distraiga	-12.7485
▁divierte	-12.7485
▁divulg	-12.7485
▁dreadful	-12.7485
▁dripping	-12.7485
▁duplicado	-12.7485
▁ebriedad	-12.7485
▁eclipse	-12.7485
▁eficaz	-12.7485
▁eficiente	-12.7485
▁eiffel	-12.7485
▁elogió	-12.7485
▁embrujada	-12.7485
▁enthusiasm	-12.7485
▁escéptic	-12.7485
▁escúchame	-12.7485
▁estrecho	-12.7485
▁estresante	-12.7485
▁evacuate	-12.7485
▁eventualmente	-12.7485
▁expedition	-12.7485
▁eyebrows	-12.7485
▁ferrocarril	-12.7485
▁financieros	-12.7485
▁fingerprints	-12.7485
▁flavor	-12.7485
▁giraffe	-12.7485
▁gramática	-12.7485
▁gratuita	-12.7485
▁greedy	-12.7485
▁gunshot	-12.7485
▁hairdresser	-12.7485
▁hakone	-12.7485
▁happily	-12.7485
▁helsinki	-12.7485
▁hesitation	-12.7485
▁hiciese	-12.7485
▁himalaya	-12.7485
▁honshu	-12.7485
▁hyogo	-12.7485
▁immature	-12.7485
▁immigrants	-12.7485
▁impolite	-12.7485
▁improvis	-12.7485
▁inaceptable	-12.7485
▁incorr	-12.7485
▁ingleses	-12.7485
▁inmaduro	-12.7485
▁inmigrantes	-12.7485
▁insensible	-12.7485
▁intimida	-12.7485
▁intrigued	-12.7485
▁invasores	-12.7485
▁janeiro	-12.7485
▁jirafa	-12.7485
▁jodiendo	-12.7485
▁jubiló	-12.7485
▁karaoke	-12.7485
▁kennedy	-12.7485
▁knives	-12.7485
▁lemonade	-12.7485
▁liquid	-12.7485
▁llanto	-12.7485
▁medication	-12.7485
▁mendigo	-12.7485
▁mercurio	-12.7485
▁mercury	-12.7485
▁mermelada	-12.7485
▁microscope	-12.7485
▁montgomery	-12.7485
▁muerda	-12.7485
▁murciélago	-12.7485
▁mysteries	-12.7485
▁neblina	-12.7485
▁neutral	-12.7485
▁nitrógeno	-12.7485
▁niñera	-12.7485
▁ofendido	-12.7485
▁offensive	-12.7485
▁olfato	-12.7485
▁pascua	-12.7485
▁patinaje	-12.7485
▁peasant	-12.7485
▁perfección	-12.7485
▁permanezca	-12.7485
▁perspectiva	-12.7485
▁picadura	-12.7485
▁pioneer	-12.7485
▁plague	-12.7485
▁plumber	-12.7485
▁poesía	-12.7485
▁polonia	-12.7485
▁potential	-12.7485
▁privacidad	-12.7485
▁profile	-12.7485
▁protección	-12.7485
▁psiquiatra	-12.7485
▁quisquilloso	-12.7485
▁racial	-12.7485
▁recesión	-12.7485
▁reflejo	-12.7485
▁reggae	-12.7485
▁rehús	-12.7485
[...]
